/**
  ******************************************************************************
  * @file    ml_network_data_params.c
  * @author  AST Embedded Analytics Research Platform
  * @date    2026-01-04T13:33:27+0100
  * @brief   AI Tool Automatic Code Generator for Embedded NN computing
  ******************************************************************************
  * Copyright (c) 2026 STMicroelectronics.
  * All rights reserved.
  *
  * This software is licensed under terms that can be found in the LICENSE file
  * in the root directory of this software component.
  * If no LICENSE file comes with this software, it is provided AS-IS.
  ******************************************************************************
  */

#include "ml_network_data_params.h"


/**  Activations Section  ****************************************************/
ai_handle g_ml_network_activations_table[1 + 2] = {
  AI_HANDLE_PTR(AI_MAGIC_MARKER),
  AI_HANDLE_PTR(NULL),
  AI_HANDLE_PTR(AI_MAGIC_MARKER),
};




/**  Weights Section  ********************************************************/
AI_ALIGNED(32)
const ai_u64 s_ml_network_weights_array_u64[31269] = {
  0xbd4bd961bdc95cf8U, 0xbd0b36cb3dce55c9U, 0x3d6ea7143d9a213dU, 0x3cf898b4bbeea714U,
  0xbdbf6b583e01452bU, 0x3dbceeef3e1ddbd9U, 0x3d55cb01bd7d9185U, 0x3d063dfbbc5ac3d2U,
  0xbd55cb013d290baeU, 0x3dd5cb01bdb7f61fU, 0xbd902f9cbdd0d231U, 0xbdc95cf8bd8b36cbU,
  0x3cb2fd4fbd41e7c0U, 0xbc95286c3beea714U, 0xbd46e090bdbf6b58U, 0x3ddd403abd69ae43U,
  0x3df898b43d1a213dU, 0x3a9f1a0d3cb2fd4fU, 0x3d92ac043da19675U, 0xbdd5cb01bdd0d231U,
  0x3c46e0903d290baeU, 0xbc95286cbd9a213dU, 0x3dd8476a3e02835fU, 0xbdba72873cb2fd4fU,
  0x3dfd91853d1f1a0dU, 0xbd41e7c0bdc1e7c0U, 0xbd01452bbcb2fd4fU, 0xbd95286cbe01452bU,
  0x3c81452b3d2e047eU, 0xbdd0d2313dbceeefU, 0x3d902f9cbcc6e090U, 0x3d9a213d3d95286cU,
  0xbd063dfb3dc6e090U, 0xbcb2fd4fbd9a213dU, 0x3c81452bbd01452bU, 0x3d290bae3d290baeU,
  0x3da412dd3dd0d231U, 0x3deea714bc6ea714U, 0x3d8db334bd2e047eU, 0xbdec2aabbd739fe4U,
  0x3bd3981c3dbfc1daU, 0x3da9b7573e00f0b1U, 0x3ca783173e00f0b1U, 0x3dde9d5ebd465e9bU,
  0xbdebd6e0ba8d1013U, 0x3c76dc213de76e5fU, 0x3d653a1fbda78317U, 0xbe09c1b3bd4f2f9cU,
  0xbd4ac71bbb8d1013U, 0x3e078d723dabeb97U, 0x3dd163dc3d867352U, 0xbda9b7573de76e5fU,
  0x3d76dc21bdd3981cU, 0xbdbfc1dabda0e656U, 0x3d465e9b3d08a792U, 0x3dbd8d9a3c41f61aU,
  0xbc653a1f3d820ad2U, 0xbd93acd4bcffad22U, 0x3d2783173cdc691eU, 0xbc53981c3e0bf5f3U,
  0x3d8f44533e043f12U, 0x3d8f4453bde76e5fU, 0x3cb054183d41f61aU, 0xbd5c691ebd917894U,
  0x3bd3981cbc9eb215U, 0x3e0673523d34bc98U, 0x3e00f0b1bd231a96U, 0xbd043f12bdcac71bU,
  0xbdebd6e0bcd3981cU, 0xbcb054183dc892dbU, 0x3cd3981cbca78317U, 0x3debd6e0bd981554U,
  0xbcc1f61abda31a96U, 0xbd465e9b3d231a96U, 0x3d7fad22bd3d8d9aU, 0x3d465e9b3de9a29fU,
  0xbcd3981cbdc1f61aU, 0xbe09c1b3bdd5cc5dU, 0x3c0d10133d0d1013U, 0xbde305df3cee0b20U,
  0xbd816dba3d5a408fU, 0xbbf3a15ebaa26b94U, 0x3dda408fbe2126bdU, 0x3db6b9063d7dc817U,
  0x3da26b943d36b906U, 0xbce97aa5bdaf1bfcU, 0xbd36b9063b226b94U, 0x3d78b4bbbcc0dfc0U,
  0x3d816dba3d83f768U, 0x3bf3a15ebd93317eU, 0xbd1844db3c9844dbU, 0xbdc3696e3cf3a15eU,
  0xbd93317e3c83f768U, 0x3db6b9063cd52d32U, 0xbc5f53ec3cd52d32U, 0xbcd52d323de6f0f6U,
  0x3dc87ccbbcc0dfc0U, 0x3aa26b94bda4f542U, 0xbd40dfc03c83f768U, 0x3d226b94bdd019d6U,
  0xbe053c3fbd45f31cU, 0xbd8e1e22bdaf1bfcU, 0x3d4b0679bdcd9027U, 0xbd1844dbbd8e1e22U,
  0x3d816dbabdcd9027U, 0x3d13317e3d73a15eU, 0x3da77ef13cd52d32U, 0xbd697aa53d13317eU,
  0xbddf53ec3d1d5837U, 0x3c83f7683d2c924dU, 0x3aa26b943bf3a15eU, 0xbdd019d63e1989b2U,
  0x3d3bcc63bd697aa5U, 0x3d5a408fbcc0dfc0U, 0x3e13317ebcdf53ecU, 0x3e0cd94abd697aa5U,
  0x3d93317e3e1ace89U, 0xbc73a15ebd9ace89U, 0x3daf1bfc3d36b906U, 0xbdda408fbd697aa5U,
  0xbcc09e79bd6846a1U, 0x3df9458dbcf9458dU, 0xbd9621293cd747b4U, 0xbe178bbdbe11e16eU,
  0x3c3549dbbd824d15U, 0xbd1ea0a0be33df47U, 0xbb87f7643db549dbU, 0xbdc648c8bdd747b4U,
  0xbdc09e793dcbf316U, 0x3e134c023d5747b4U, 0x3dd4728d3dcbf316U, 0x3ddcf2033e0da1b3U,
  0xbda175c7bd7eefdcU, 0x3c934c023d8da1b3U, 0xbdfeefdc3d5cf203U, 0x3c9ea0a0bc87f764U,
  0x3ce29c52U, 0xbd18f6513e200b33U, 0xbdf9458dbd9ea0a0U, 0x3dc373a03e1bcb78U,
  0x3d409e793cedf0efU, 0xbe068cd1bcc09e79U, 0xbdaf9f8c3df9458dU, 0xbdeb1bc83d87f764U,
  0x3d9bcb78bd7eefdcU, 0xbcd747b43d29f53dU, 0x3d824d15bd3549dbU, 0xbd29f53dbd024d15U,
  0xbdedf0ef3c9ea0a0U, 0x3dfc1ab5bdc91defU, 0x3d824d153dd19d65U, 0xbe00e282bd79458dU,
  0xbe0961f8bddfc72aU, 0x3dbdc9513df39b3eU, 0x3dfeefdc3d9bcb78U, 0xbd79458d3dbdc951U,
  0x3ab549db3dc09e79U, 0xbe134c02bdeb1bc8U, 0x3d824d15be03b7a9U, 0xbd0da1b33cf9458dU,
  0x3d82f5de3cd72636U, 0xbd3fc373bcf33653U, 0x3e0d7be93d9f05fbU, 0xbde080eabd3fc373U,
  0x3d7c9108bd23b356U, 0x3da60a03bde784f2U, 0x3d8ea7403b95ab47U, 0x3e1229433dc91e27U,
  0x3dd0222fbd491e27U, 0x3de52e453dd278dcU, 0x3d9f05fb3ce080eaU, 0xbde52e45bda60a03U,
  0xbdd0222fbd8c5093U, 0x3ca860b0bd9a58a1U, 0xbd3b16193d5bd390U, 0xbd652e45bd0c5093U,
  0xbdaab75d3c733653U, 0xbce080ea3db668bfU, 0x3c7336533dde2a3dU, 0xbd3b1619ba95ab47U,
  0x3d3b16193c82f5deU, 0x3d2860b0bce9db9fU, 0x3db412113d5bd390U, 0xbd89f9e5bdd4cf89U,
  0xbda3b356bdb668bfU, 0x3da3b3563b15ab47U, 0x3daf64b7ba95ab47U, 0x3de2d7983d6e88f9U,
  0xbd4dcb823d10fdedU, 0xbdcdcb823dde2a3dU, 0x3dc91e273da15ca9U, 0xba95ab47bd07a338U,
  0x3cfc9108bd5bd390U, 0x3c8c50933c2860b0U, 0x3e147ff03e0c5093U, 0xbdd0222f3dc21a20U,
  0xbda60a033db668bfU, 0x3c15ab47bc733653U, 0x3d89f9e5bbbb1619U, 0xbcbb16193d2d0e0aU,
  0xbd796ad5bd88793fU, 0x3be1e32b3d8d2dfbU, 0x3d8f88593df4b619U, 0x3ce1e32b3d6b4ca2U,
  0x3e0ad39dbb61e32bU, 0xbbbc3d4ebd4f103dU, 0x3cf4b6193dc5a6c6U, 0xbd53c4f8bd53c4f8U,
  0xbdc80123bd61e32bU, 0x3d9b4c2ebd88793fU, 0x3d98f1d03d8f8859U, 0xbdccb5df3d969772U,
  0x3ce1e32b3d88793fU, 0xbd9b4c2e3d8ad39dU, 0x3c61e32b3c8d2dfbU, 0xbdeda700bdeb4ca2U,
  0xbdccb5df3b969772U, 0x3d1697723d88793fU, 0x3dd3c4f8bd11e2b6U, 0xbdfbc533bc4f103dU,
  0xbe04f1b3bd32d3d7U, 0xbdb788933d91e2b6U, 0xbb61e32b3cc5a6c6U, 0x3d4f103dbc969772U,
  0xbda25b473d816a26U, 0xbe0ad39dbd6697e7U, 0xbdca5b813d61e32bU, 0x3c83c484bd4a5b81U,
  0xbe09a66ebceb4ca2U, 0x3d53c4f83dbe97acU, 0x3d2e1f1cbdc5a6c6U, 0x3bbc3d4ebd7e1f90U,
  0x3d0d2dfb3d796ad5U, 0xbe130fe53d796ad5U, 0xbddd2e6f3cd879b4U, 0xbc83c4843d5d2e6fU,
  0x3e156a433c4f103dU, 0x3e0f88593d9b4c2eU, 0x3d40f20abd378893U, 0xbd5d2e6f3da71002U,
  0xbd80ee5bbda55e3dU, 0x3ce03a5c3be03a5cU, 0x3d06896abe31fb1fU, 0x3cf6a6983d11bf88U,
  0x3d86896a3de8a2f2U, 0x3e1b8ee3bd65d56bU, 0xbd06896a3d603a5cU, 0x3e0d8b3dbcd5043eU,
  0xbd8c24793d2dc6d4U, 0xbe1e5c6abd175a98U, 0x3dadc6d4bdbe9801U, 0x3e03bbe3bcf6a698U,
  0x3cbe98013dc43310U, 0xbd975a98bd3361e3U, 0x3d76a698bd7c41a7U, 0xbd175a983be03a5cU,
  0x3d49ce1fbdcf692eU, 0xbd7c41a7bd49ce1fU, 0x3d9fc32ebce03a5cU, 0xbd8956f23d8956f2U,
  0xbcf6a698bd65d56bU, 0x3d9a281f3d76a698U, 0xbc1cf5a73dda9f4dU, 0xbd282bc53d3e9801U,
  0xbd5a9f4dbe0d8b3dU, 0xbd8ef201bceb707aU, 0x3c603a5cbdf3d911U, 0x3df974203c91bf88U,
  0x3d7c41a7bd975a98U, 0xbd8956f23d1cf5a7U, 0x3dee3e01bd5a9f4dU, 0x3d38fcf23d443310U,
  0x3ceb707abd06896aU, 0x3da82bc53b3361e3U, 0xbdc433103d11bf88U, 0xbd3361e33e00ee5bU,
  0xbd1cf5a7bd710b89U, 0xbdb62f6b3df3d911U, 0x3d0c2479bbe03a5cU, 0xbcbe9801bd603a5cU,
  0xbdbf64c53dbccea7U, 0xbc4ee97c3cba3889U, 0x3bcee97c3aa58796U, 0x3bf84b613d731f24U,
  0x3dde6e323c639a6eU, 0x3e243c87bd0151edU, 0xbb784b613d5415b8U, 0x3dcee97cbd9b2f1dU,
  0xbbcee97cbdd941f5U, 0x3bcee97c3dfd779eU, 0x3ccee97c3c90d6a3U, 0xbd2fe00f3c9b2f1dU,
  0x3e1221b23d258796U, 0x3aa587963d936cc2U, 0xbd5e6e32bdafe00fU, 0xbdcc535d3d067e2aU,
  0xbc4ee97c3df5b543U, 0x3d90d6a33da2f178U, 0xbbf84b61bd1602e0U, 0x3d350c4c00000000U,
  0xbdd941f5bdbccea7U, 0x3cc491023cd941f5U, 0x3aa587963d1602e0U, 0x3d83e80c3d731f24U,
  0xbdedf2e8bcafe00fU, 0xbdeb5cc93dde6e32U, 0x3de10450bdc72720U, 0x3dba3889bd8e4085U,
  0xbd3a38893d449102U, 0x3d3f64c53d639a6eU, 0x3daab3d33d5941f5U, 0xbdaab3d3bd1602e0U,
  0xbd8151edbcafe00fU, 0x3c258796bdf31f24U, 0x3dc72720bdf08906U, 0x3e0151edbd8151edU,
  0x3dc1fae4bd83e80cU, 0x3d1602e03cafe00fU, 0xbe0e4085bd1602e0U, 0xbc3a38893db7a26aU,
  0x3d8d11c6bcd39aa9U, 0xbd5dae373d1c2f1bU, 0x3ce7c1c5bdd115c5U, 0xbd0d11c6bdc9871aU,
  0x3dc47d533d85831bU, 0xbe14a0703d62b7feU, 0xbc82fe383dce90e2U, 0xbd7be8e1be1ff670U,
  0x3d6ccb8c3c355ffeU, 0x3cf1d5533b2138e2U, 0xbcbf738cbdd39aa9U, 0x3dea46a8bdb55ffeU,
  0xbd355ffe3c8d11c6U, 0xbda138e2bdab4c70U, 0x3cfbe8e13d972554U, 0x3d82fe383cc9871aU,
  0xbc355ffeU, 0xbdd61f8cbd8a8ce2U, 0xbe05831b3dfe6dc5U, 0xbd49871abc972554U,
  0xbb2138e2bdf45a37U, 0x3d539aa93db05637U, 0xbd5dae373df963feU, 0xbd8d11c6bd7be8e1U,
  0xbe10d91b3da642a9U, 0x3db55ffebe007954U, 0xbd85831b3d8f96a9U, 0xbd305637be121b8dU,
  0x3d67c1c53c972554U, 0x3d49871a3d8a8ce2U, 0xbdb55ffebb2138e2U, 0xbdb056373db05637U,
  0x3d921b8dbdea46a8U, 0x3d3f738cbdd8a470U, 0xbdddae37bda138e2U, 0x3dd8a470bcf1d553U,
  0xbdc9871abd2642a9U, 0x3e1aeca9bd99aa37U, 0x3deccb8c3d305637U, 0xbd02fe383d71d553U,
  0xbdd7fb4fbdcd2ebeU, 0xbd311ae0bd287738U, 0xbbacc90c3e06fd11U, 0xbde719b33d9b81beU,
  0x3db7959d3d9daaa8U, 0xbd5c4d22bd0e8c44U, 0xbdaaa022bdc48b17U, 0x3cf1e644be008254U,
  0xbcf1e644bbacc90cU, 0xbdbe105abd950701U, 0xbc9b81bebd83bfb3U, 0x3dcd2ebe3ccf57a8U,
  0x3d7a89eb3d609ef6U, 0xbb0a3a70bd2cc90cU, 0x3d0196c93c1b81beU, 0x3d9b81be3ca42565U,
  0xbdd7fb4f3dcf57a8U, 0x3cb56cb3bdf86101U, 0xbc8a3a703deb6b87U, 0x3bacc90c3dc03944U,
  0xbd7638183dfa89ebU, 0xbb4f57a83d92de17U, 0xbc71e6443dc03944U, 0x3d90b52dbdd7fb4fU,
  0x3dd7fb4fbe02ab3eU, 0xba8a3a70bdf86101U, 0x3d0a3a703dc48b17U, 0x3df1e644bd0e8c44U,
  0xbc0a3a70bdd18092U, 0x3b0a3a70bdaef1f6U, 0xbcacc90c3dcb05d4U, 0xbd9b81be3d46b401U,
  0xbd53a97c3cd7fb4fU, 0xbc2cc90c3da64e4fU, 0x3da877383d39be86U, 0x3e0925fbbce9429dU,
  0x3d8c635a3cb56cb3U, 0x3dd180923d6d9470U, 0x3de2c7e0bdfcb2d5U, 0x3dcb05d4bdfedbbeU,
  0xbdcf0d8c3e01b146U, 0xbd8f58263da85f69U, 0xbc119ea03d360648U, 0xbbda6df03d03f7c1U,
  0xbdaaa5e4bcb60648U, 0xbde387da3da85f69U, 0x3dd39a80bda3d274U, 0xbb5a6df03db60648U,
  0xbc360648bd317953U, 0xbdd39a80bd8d11abU, 0xbcacec5ebdca8096U, 0x3dacec5e3d863e3cU,
  0xbe008e09bcb60648U, 0xbdeee83ebce387daU, 0x3dacec5e3da618eeU, 0x3b119ea0bc119ea0U,
  0xbd8d11ab3d8acb30U, 0xbd9f457f3c919ea0U, 0xbdf375343d9cff04U, 0xbbfed598bdfed598U,
  0x3d5a6df0bd7ed598U, 0x3ddcb46abc23d274U, 0xbdeee83e3e107b63U, 0xbdacec5e3d83f7c1U,
  0xbd5efae5bcb60648U, 0x3d3606483da18bfaU, 0xbdd82776bde14160U, 0x3dc5f3a2bb5a6df0U,
  0x3ceca1c43d1ab88aU, 0x3dd5e0fb3d9cff04U, 0x3d6387da3e02d484U, 0x3d1f457fbddcb46aU,
  0xbddefae5bd119ea0U, 0xbde14160bd23d274U, 0x3dea5b4abdda6df0U, 0xbe0f5826bd7ed598U,
  0xbd9f457fbdd82776U, 0x3cf5bbae3dd15406U, 0x3dd15406bdda6df0U, 0xbd75bbae3daf32d8U,
  0xbdd43bda3d2d7039U, 0xbd3fb1eebc48d2c8U, 0xbd71e6a03dc1fa24U, 0xbe10e98e3d1fbef1U,
  0x3c120da9bd1fbef1U, 0x3dfb077a3d169e16U, 0x3dc8d2c83dafb86fU, 0xbd44425b3da69795U,
  0xbd2d70393d369113U, 0x3dd43bdabdd68410U, 0xbdbb2181bd9455e0U, 0xbdad7039bdd8cc47U,
  0x3df1e6a0bdf42ed7U, 0x3def9e693c920da9U, 0xbcff97e8bb920da9U, 0xbdbfb1ee3c369113U,
  0xbde67d8f3cc8d2c8U, 0xbdc68a92bd86a498U, 0x3dafb86f3c88ecceU, 0x3dc68a92bdfb077aU,
  0xbc244f5ebc369113U, 0xbcf6770dbbb69113U, 0x3d88eccebdd1f3a3U, 0xbdf42ed73e0c5920U,
  0x3e02142b3e033846U, 0x3dc4425bbbff97e8U, 0x3d1b2e84bdb200a6U, 0x3ded56333dbb2181U,
  0x3d6d5633bd969e16U, 0xbd8d7d3c3d568410U, 0xbddfa4ebbdc8d2c8U, 0x3d568410bc244f5eU,
  0x3d28dfcb3d7f97e8U, 0xbde67d8fbdbb2181U, 0xbdef9e693dd43bdaU, 0x3dafb86fbd8fc572U,
  0x3dd8cc47bd88ecceU, 0x3b920da93d51f3a3U, 0xbcd1f3a33e045c61U, 0xbd44425bbdd43bdaU,
  0x3ccac6bbbd4570a9U, 0xbccac6bbbdad6d56U, 0xbc401a97be0812d5U, 0xbc956a033de82021U,
  0x3d75774fbd8abddfU, 0x3d256c3b3ca01628U, 0xbd3ac4843cd572e0U, 0x3d2ac24d3b8011baU,
  0xbd356e723d256c3bU, 0x3d0567ccbd501cceU, 0x3d4570a9bd1ac016U, 0xbd1ac016bde01f05U,
  0xbd4ac6bbbccac6bbU, 0x3df5774f3d356e72U, 0x3cd572e0bcaac24dU, 0x3d601f05be0c1363U,
  0xbe0ebe6c3db0185fU, 0x3db56e723da56c3bU, 0xbb2ac24dbd3ac484U, 0xbd1013f13e041248U,
  0x3dc2c5a0bd4ac6bbU, 0xbd82bcc33e02bcc3U, 0x3e0d68e8bdd572e0U, 0x3d2ac24d3d657517U,
  0xbdeacb2a3c2ac24dU, 0xbd601f05bd657517U, 0x3de82021bbd572e0U, 0x3b8011babd98150dU,
  0x3d0567cc3dbac484U, 0x3dd01ccebd0567ccU, 0xbe296cc8be14147fU, 0x3b2ac24dbceacb2aU,
  0xbd0abddfbc5572e0U, 0xbe09685a3b8011baU, 0x3d6acb2a3d256c3bU, 0xbe0abddf3c2ac24dU,
  0xbda2c131be02bcc3U, 0x3d70213cbddac8f3U, 0x3d9013f13ded7633U, 0xbdd81de93ccac6bbU,
  0xbc704c80bb93e04fU, 0xbd93e04f3e12b88eU, 0x3d2afb5bbda65c59U, 0xbde70e7b3dc904ebU,
  0x3e0164453e072b08U, 0xbd0aa24abdb8d863U, 0x3e04db87bdcb546dU, 0xbc704c803e072b08U,
  0xbc265c593dbb27e4U, 0xbdad4addbd626f79U, 0x3dcb546dbd9d1e54U, 0x3caf9a5e3de26f79U,
  0xbd2afb5bbdbfc6e6U, 0x3d93e04fbdbfc6e6U, 0xbdaf9a5ebd9d1e54U, 0x3dd93174bcc21668U,
  0xbde70e7b3dcff36fU, 0x3dc465e9bd343960U, 0x3d798a85bd016445U, 0xbd816445bdf73b04U,
  0x3dd49272bcb8d863U, 0xbdddd076bb93e04fU, 0x3d704c803d4b546dU, 0xbd46b56a3d4b546dU,
  0x3d1d1e54bd962fd0U, 0xbd6bad7ebcf98a85U, 0x3d2f9a5ebde70e7bU, 0xbdc6b56abda40cd8U,
  0xbd83b3c6bb93e04fU, 0xbe0f414dbd9f6dd5U, 0xbd265c59bd21bd56U, 0xbd704c80bdc465e9U,
  0x3dcda3ee3d4b546dU, 0xbc38d8633d5dd076U, 0xbc5dd0763dd242f0U, 0x3d93e04fbca65c59U,
  0x3debad7ebc016445U, 0x3cf98a8500000000U, 0xbb93e04fbdddd076U, 0x3e0e198cbd7e2988U,
  0x3d2436c7bd6d32adU, 0xbd844892be0200b3U, 0xbdfae1e8bd8d680fU, 0x3db675c0bdc424fbU,
  0x3c9b174abd3f953dU, 0xbc2436c7bd31e602U, 0xbcbf953d3dcd4478U, 0x3cff71a7bd2436c7U,
  0xbdc66cdb3e10d3ddU, 0xbd943fac3db675c0U, 0xbdcf8c573da436c7U, 0x3dfd29c8bc7f71a7U,
  0x3cb675c0bd7f71a7U, 0x3d9fa708be0200b3U, 0xbcbf953d3b91f7cdU, 0x3dad56433ddaf3b4U,
  0x3e0448923dab0e64U, 0x3ddd3b933d16878bU, 0x3dd8abd43ca436c7U, 0x3d48b4babdc8b4baU,
  0x3b91f7cd3d7ae1e8U, 0xbd31e602bdb675c0U, 0xbe069071bd044892U, 0xbe00dcc33df40a4bU,
  0xbdc66cdb3cb675c0U, 0xbcff71a73c6d32adU, 0xbc2436c73dd1d437U, 0xbdbf953dbc9b174aU,
  0xbe07b4613dcf8c57U, 0x3cbf953d3cf6522aU, 0xbced32ad3d11f7cdU, 0xbda436c73d31e602U,
  0x3cf6522abda1eee7U, 0x3dab0e643dcf8c57U, 0xbd5663f53c88d850U, 0x3d3b057fbc5af3b4U,
  0x3cdaf3b43db675c0U, 0x3d2d5643bcff71a7U, 0xbdd8abd43ced32adU, 0x3c9b174a3ded32adU,
  0x3db9af053d085321U, 0xbdf9252abd039fb6U, 0xbd1fd438bc3c08baU, 0xbc3c08ba3db0482fU,
  0xbd839fb6bceb0ae9U, 0xbd1b20cd3d40bc26U, 0x3c7471bfbc293b0eU, 0xbde1a413bce1a413U,
  0xbc9fd438bdeb0ae9U, 0x3c9fd438be014600U, 0x3d4ed6673dbe6270U, 0xbc966d623dc56f91U,
  0x3d32a1e4be0e3367U, 0xbc61a4133cc56f91U, 0x3dfdd8953deb0ae9U, 0xbddf4a5dbda22deeU,
  0x3d6fbe543db4fb9aU, 0x3dbe6270be05f96bU, 0x3d7dd895bd2487a3U, 0x3dfb7ee03de1a413U,
  0x3d9fd4383d456f91U, 0xbc7471bfbc8d068cU, 0xbd11b9f7bce1a413U, 0x3c839fb6be072646U,
  0x3d166d62bdc7c946U, 0x3e1540873de3fdc9U, 0xbd7dd895bdbc08baU, 0xbe04cc913e039fb6U,
  0xbdf2180abd9fd438U, 0xbe0f6041bc4ed667U, 0x3d5cf0a83db9af05U, 0x3e04cc913dc7c946U,
  0x3db0482fbdb2a1e4U, 0xbdc0bc26bdc315dbU, 0xbda487a33df471bfU, 0x3d8f60413ceb0ae9U,
  0x3da487a33d8f6041U, 0x3b966d62bd456f91U, 0x3d839fb6bde8b134U, 0xbda6e159bdc7c946U,
  0x3ce926a8bdaedcfeU, 0x3d5fd3313c029087U, 0x3df27a20bcd67fbaU, 0xbdb386babd1e8aedU,
  0xbd727a20be0e38dcU, 0xbc1537763dbf2f0fU, 0xbd3131dcbb5fd331U, 0xbc3a85543dd67fbaU,
  0xbdba85543dfe2275U, 0x3d27de653d2334a9U, 0xbd19e1323ca7de65U, 0x3b5fd331bd898f21U,
  0x3d6dd0643dcf8120U, 0x3d898f213b953776U, 0x3cd67fbabccd2c42U, 0xbd567fbabda334a9U,
  0xbda7de65bd829087U, 0x3d0be3ff3e04e565U, 0x3da7de653cf27a20U, 0xbde6d1cb3e029087U,
  0xbd43d8cbbd3a8554U, 0xbcdfd331bd3f2f0fU, 0xbd3f2f0f3ccd2c42U, 0xbd84e565be073a43U,
  0xbe140d07bb953776U, 0x3ddd7e53bdedd064U, 0x3deb7b863dfbcd97U, 0x3c8be3ff3d829087U,
  0xbdf025423cfbcd97U, 0xbc3a85543d953776U, 0x3d92e2983bba8554U, 0x3d99e132bdc183edU,
  0xbdc183ed3de926a8U, 0x3d0be3ff3dedd064U, 0x3c27de653de47cedU, 0xbdaedcfe3e073a43U,
  0x3e029087bd029087U, 0x3da0dfcbbdf723dbU, 0xbd2334a9bdba8554U, 0xbdc3d8cb3d51d5feU,
  0x3c9cc1dabda1fb84U, 0x3d60af74bb27352dU, 0x3ce5e91e3e139cf2U, 0xbd1cc1dabdf5961aU,
  0x3dc3f2513d94eb5cU, 0xbaa7352d3e07db35U, 0x3d75961a3db97efeU, 0xbd27352dbdc92bfaU,
  0x3daf0bab3dc3f251U, 0x3b27352dbce5e91eU, 0x3d8004b6bdfacfc4U, 0x3d978831bdc3f251U,
  0xbe03eff6bcdb75cbU, 0x3cb1a8803d5b75cbU, 0xbcbc1bd3bcfacfc4U, 0xbe18d69bbdb44555U,
  0xbd924e873e0fb1b3U, 0x3aa7352d3d9f5eafU, 0x3dde12a03e25e6c3U, 0xbd87db35bdb1a880U,
  0x3e0153213d60af74U, 0x3d468f253cfacfc4U, 0xbe09299fbdb6e229U, 0xbda7352dbe02a18bU,
  0x3db6e229bda9d202U, 0x3d41557c3de34c49U, 0xbd924e873ce5e91eU, 0x3d1788313dd63c22U,
  0xbc65e91e3cd10278U, 0xbd7acfc4be139cf2U, 0xbd8a78093ba7352dU, 0x3d178831bcdb75cbU,
  0xbd87db353d02a18bU, 0x3de885f3bd31a880U, 0xbda1fb843d21fb84U, 0x3e03eff6bdd8d8f6U,
  0xbddb75cbbd8a7809U, 0xbc510278bb7acfc4U, 0x3ca7352dbd27352dU, 0x3da9d202bde0af74U,
  0x3dff03d93dbb82d4U, 0xbdc302f1bd4302f1U, 0x3dc80304be160243U, 0xbded8395bcdc0352U,
  0x3db402b7bd20026aU, 0xbd8c021d3d0c021dU, 0x3e1ec2653d7503b2U, 0xbd480304bba0026aU,
  0xbd9d8260bca0026aU, 0x3dcf8321bc0c021dU, 0x3dc082e8bdb682c1U, 0xbd2f02a4bc20026aU,
  0xbcdc0352bde88382U, 0xbaa0026abd2a0291U, 0x3dc082e83e0201f6U, 0xbd660378bd3e02deU,
  0x3d9b02573db682c1U, 0x3c5c03523d960243U, 0xbda28274bd5c0352U, 0x3e0201f63d480304U,
  0x3d0201f63b20026aU, 0x3d7a03c63c480304U, 0xbd20026abdbb82d4U, 0x3d9d8260bdac829aU,
  0x3d8702093d3e02deU, 0xbe110230bd1b0257U, 0xbd4302f13daf02a4U, 0xbdc803043c70039fU,
  0x3c480304bda5027dU, 0x3bf0039fbe0341fbU, 0xbde10365bc8201f6U, 0xbce60378bd7503b2U,
  0xbd70039fbdcf8321U, 0xbd848200bd9b0257U, 0x3c0c021d3d110230U, 0x3e0e8226bd7503b2U,
  0x3d70039f3c8201f6U, 0x3cfa03c63d5c0352U, 0x3dde835b3d960243U, 0xbdf783bc3d2f02a4U,
  0x3dabccc23d8a772dU, 0x3dc2e09ebd66c6a1U, 0xbdb60e793c61a5c5U, 0xbd8f98093de43633U,
  0xbe22d3413d7b4a10U, 0x3dc2e09e3de6c6a1U, 0x3dd7640e3d0a772dU, 0xbe0a772dbd5c84e9U,
  0xbd337e0bbd3dbfc3U, 0x3dbdbfc3bd9efa9cU, 0x3c8556523d9efa9cU, 0x3ce1a5c5bd57640eU,
  0xbde43633bd42e09eU, 0xbe0e4fd2bd922877U, 0xbc762934bd389ee7U, 0xbdb60e79bdd24332U,
  0xbdbdbfc3bd66c6a1U, 0xbce1a5c5bdfb4a10U, 0x3d5243323d14b8e5U, 0xbaa41b783d762934U,
  0x3dd4d3a03e040e1bU, 0x3d710858bde9570fU, 0x3d389ee7bd42e09eU, 0x3dd9f47bbd99d9c0U,
  0xbdc2e09ebc762934U, 0xbdcd2256bc4d2256U, 0xbdb60e79bdee77eaU, 0x3d94b8e53cc2e09eU,
  0xbdabccc2bda93c54U, 0x3d293c54bcd7640eU, 0x3d3dbfc3bdc05031U, 0xbdbdbfc33dd4d3a0U,
  0x3e0a772d3b241b78U, 0x3c4d2256bd710858U, 0xbdbb2f553d0f9809U, 0xbd8d079bbd855652U,
  0x3de6c6a13c855652U, 0xbd87e6bf3cae5d30U, 0x3bcd22563d9efa9cU, 0xbddc84e93d0f9809U,
  0x3d865238bdba37cdU, 0xbd8c6d3a3bf43865U, 0x3e41d9903d003735U, 0x3dc97b543da4d944U,
  0xbd4360513da7e6c6U, 0xbd6e1d63bc436051U, 0xbdae01c83cc36051U, 0xbdeb0fe1be01bdf6U,
  0xbd9ebe423d55b159U, 0xbcc36051be07d8f8U, 0xbd372a4c3d7a5368U, 0xbdb41ccb3d9ebe42U,
  0x3d0c6d3abce80260U, 0x3dba37cdbdba37cdU, 0xbd803735be095fb9U, 0x3dae01c83dba37cdU,
  0x3dd5b159bd9ebe42U, 0xbcb72a4c3e1a2a00U, 0x3dbd454e3d680260U, 0x3d372a4cbe27e6c6U,
  0xbdba37cd3d55b159U, 0x3dd8bedabdc052d0U, 0x3cf43865bd4f9656U, 0x3c2af447bc12883dU,
  0xbd8652383dba37cdU, 0xbd8f7abb3d9595beU, 0xbdeb0fe1bd895fb9U, 0x3dbd454ebd8344b6U,
  0x3dd5b1593cb72a4cU, 0x3dc66dd23ccf9656U, 0xbccf96563c436051U, 0x3c743865bcc36051U,
  0xbdc052d03c2af447U, 0x3d6802603b436051U, 0x3caaf447bdb41ccbU, 0xbd12883dbce80260U,
  0x3d7438653c12883dU, 0xbd6e1d633ac36051U, 0x3dc97b543db10f49U, 0xbc5bcc5bbc436051U,
  0xbd8c50343d330539U, 0x3bc1891c3cf1eb62U, 0xbd8037a2bd2957f8U, 0x3d02a2f3ba9ad416U,
  0x3dd00cfebcde90e0U, 0x3ca481573cc1891cU, 0xbd9868c6bd077993U, 0x3d0779933dbf1dcbU,
  0xbdae2e993d7b98a4U, 0x3dcb365dbc683e21U, 0x3e199e6e3d89e4e4U, 0xbdd2784ebcd4e39eU,
  0x3b9ad4163d95fd75U, 0xbde5d2d1be050e43U, 0x3dabc348be125c7dU, 0x3c54e39e3dc8cb0dU,
  0x3dd2784e3d02a2f3U, 0x3dd9ba3fbd636780U, 0xbd2957f83df1eb62U, 0xbd4b365dbca48157U,
  0x3df1eb62bdba472aU, 0x3d0c50343d6d14c2U, 0xbd7b98a4bd5e90e0U, 0xbd54e39e3a9ad416U,
  0x3df6c2033db7dbdaU, 0x3dcda1ad3d71eb62U, 0x3c7b98a4bd89e4e4U, 0xbd41891cbd9d3f66U,
  0xbb1ad4163d8ebb84U, 0xbded14c23dd2784eU, 0xbe14c7cd3dd2784eU, 0xbd850e43bcde90e0U,
  0xbd37dbdabde83e21U, 0x3d8037a23de83e21U, 0x3df1eb623dd74eefU, 0x3d9ad4163c683e21U,
  0xbd500cfe3d9d3f66U, 0x3db7dbdabd7b98a4U, 0xbd8037a23cf1eb62U, 0xbc2e2e993de83e21U,
  0x3cac6471bdebe7c3U, 0xbd1a3eec3bfe0d48U, 0x3c6be7c3bdc79cb8U, 0x3da7db0f3dac6471U,
  0x3cd9c23ebd9c839cU, 0xbdbc4545bd2c6471U, 0x3d59c23e3d9370daU, 0xbdf983e63cc79cb8U,
  0xbdd538dcbe05d4b6U, 0x3c9a3eec3dc79cb8U, 0xbd62d5003db0edd2U, 0xbd1a3eec3d431357U,
  0x3de75e613d74fa85U, 0x3d6be7c3bdc55808U, 0xbd8ee7783e039005U, 0x3c112c29bd675e61U,
  0xbc357733bcac6471U, 0xbd9a3eecbd707124U, 0xbd8a5e17bd95b58aU, 0xbd814b55bd5e4b9fU,
  0xbd15b58abc912c29U, 0x3d839005bdb57733U, 0xbdd77d8d3dd538dcU, 0x3d6be7c33debe7c3U,
  0xbdb577333e0028fcU, 0xbdb57733bde2d500U, 0xbd30edd23de0904fU, 0x3d85d4b63d675e61U,
  0xbde2d5003dc0cea6U, 0xbd2c6471bdee2c73U, 0x3d30edd2bdb33283U, 0xbd62d5003d4c261aU,
  0x3d50af7b3d1ec84dU, 0x3cc79cb83dbe89f6U, 0x3de519b1bdde4b9fU, 0x3d8390053dd0af7bU,
  0x3d2c64713cc79cb8U, 0xbd50af7bbd1a3eecU, 0xbe1009d1bdbe89f6U, 0xbd30edd23cc79cb8U,
  0x3df7b15b3c899b6bU, 0xbdb9c504bdb52ec5U, 0x3dc53ca2bd099b6bU, 0xbdb779e4bd65585eU,
  0x3d7c479abdb52ec5U, 0x3d9bf469bdae4d66U, 0xbd975e293d69ee9dU, 0xbd29b727bc92c7eaU,
  0xbd731b1c3da9b727U, 0xbd29b727bd907ccaU, 0x3c9bf469bd9e3f88U, 0xbd453ca23dd54a80U,
  0xbd453ca23c3779e4U, 0xbcb779e4bcd2ff60U, 0x3b5c2bdf3dd795a0U, 0x3e099b6b3dce6921U,
  0x3d49d2e2bd0e31abU, 0xbd2e4d66bd8be68bU, 0x3cae4d66bcf7b15bU, 0x3a92c7ea3d69ee9dU,
  0x3ddc2bdf3c006eedU, 0x3da520e7bd9e3f88U, 0xbbb779e43da08aa8U, 0xbd95130abdcc1e01U,
  0xbdb2e3a53e11a25aU, 0x3d0e31ab3d85052cU, 0x3dde76ff3df9fc7bU, 0x3d8e31abbd82ba0cU,
  0xbd3779e43ce5585eU, 0xbd12c7ea3dac0246U, 0xbd4e69213c49d2e2U, 0x3dac02463dfe92baU,
  0xbd99a9493de5585eU, 0x3dd2ff60bdd9e0bfU, 0x3e03df9cbd69ee9dU, 0x3e099b6b00000000U,
  0xbdf9fc7b3da2d5c8U, 0xbe03df9c3d7c479aU, 0xbc6e84dc3ddc2bdfU, 0xbcf7b15bbe05052cU,
  0xbe177bedbd7855a7U, 0xbd8619c6bcee66b4U, 0x3d2dd58ebde477c2U, 0xbc5a88d0bdc42f2fU,
  0xbda662593c1eef23U, 0x3d735e2ebc46aaecU, 0xbbc6aaec3cb2cd07U, 0xbddf80493e089582U,
  0x3cb2cd07bd01224cU, 0xbd735e2e3db548c4U, 0xbdc1b373bc1eef23U, 0xbd7855a73d9eef23U,
  0x3d8895823c81224cU, 0xbdf855a73d696f3bU, 0xbce477c23c46aaecU, 0x3d977bedbdf35e2eU,
  0x3b9eef23bde477c2U, 0xbdffc8dc00000000U, 0x3d977bed3d7d4d20U, 0x3de477c2bd735e2eU,
  0x3df35e2ebd0b113fU, 0xbdd59157bdb0514bU, 0x3d8619c63e1db145U, 0x3d0619c6bdb548c4U,
  0xbdcba265bd41b373U, 0xbc46aaec3c6e66b4U, 0x3d1008b83e0ecad9U, 0xbb6e66b43d5a88d0U,
  0xbdd591573dc6aaecU, 0xbd2dd58ebc1eef23U, 0xbdcba265bdee66b4U, 0xbd9284743e039e09U,
  0xbdd3159abc1eef23U, 0x3d32cd073d8d8cfbU, 0x3d37c4803c46aaecU, 0xbe089582bdf35e2eU,
  0x3d696f3b3ddf8049U, 0x3d150031bd0b113fU, 0xbd928474bd696f3bU, 0x3dbf37b6bcb2cd07U,
  0x3d385188bd1b372fU, 0x3d509227bd3d2b41U, 0x3dd2ff04bd02f690U, 0xbbe8d2c6bddcb277U,
  0xbc1b372f3d1b372fU, 0x3dd09227bcb85188U, 0x3d2e9e153d85636cU, 0x3d3d2b413cdf1f54U,
  0xbce8d2c63db5e4abU, 0x3c4204fb3d9183bcU, 0xbde3f90dbe1a00c1U, 0x3d93f099bc556be1U,
  0x3ccbb86ebe165d76U, 0x3dda459abdce254aU, 0x3cb851883d7c39acU, 0x3d46deb43deb3fa3U,
  0x3dda459a3d82f690U, 0x3dd56be13db377ceU, 0xbbc204fbbd6dac80U, 0x3d3377cebdf4f316U,
  0xbde665ea3d68d2c6U, 0x3be8d2c6bd509227U, 0x3a9b372fbe165d76U, 0x3d24eaa2bda010e8U,
  0xbe042cfebdbd2b41U, 0xbcd56be1bca4eaa2U, 0x3d7286393cae9e15U, 0xbdc94b91bdbf981eU,
  0x3d5f1f543d4bb86eU, 0xbdae9e153e0906b7U, 0xbd965d763df0195dU, 0xbc4204fb3d6dac80U,
  0x3df75ff33c2e9e15U, 0x3e02f6903dedac80U, 0x3c7c39ac3e0b7394U, 0x3de8d2c600000000U,
  0xbdb851883d775ff3U, 0x3d4bb86ebd5a459aU, 0xbd98ca52bdc6deb4U, 0x3db10af2bd9b372fU,
  0x3dd89b1bbe0caea3U, 0xbdf12b603d683cbcU, 0xbc32a4dfbda77a91U, 0x3cf12b6000000000U,
  0x3deeefb73c85fba7U, 0xbd05fba7bda9b63aU, 0xbe03bffe3df7de5cU, 0xbb565f72bbd65f72U,
  0xbe0dcc773dbdcf2dU, 0x3da9b63a3d818455U, 0xbc7a1a05bcd65f72U, 0xbde601123df7de5cU,
  0x3d9a149a3db957dbU, 0xbd7a1a05bcbb9384U, 0x3dcd70cd3db4e088U, 0x3d63c569bd75a2b3U,
  0xbd683cbcbdf12b60U, 0x3df7de5cbdd423c9U, 0x3dcd70cdbda53ee8U, 0x3de3c5693d8a72faU,
  0x3d75a2b3bbfa1a05U, 0x3b0eea4c3dbb9384U, 0xbe0a72fa3e04ddd3U, 0xbca9b63a3dcfac76U,
  0x3c4482283cdf4e17U, 0xbdc2467fbd29b63aU, 0xbda9b63abde189c0U, 0x3d9125f5bda3033fU,
  0x3d883750bd712b60U, 0x3d371c313d018455U, 0xbd51e8203c683cbcU, 0x3c7a1a05bdd65f72U,
  0x3deeefb7bb8eea4cU, 0x3d63c569bcd65f72U, 0xbddad6c43da53ee8U, 0x3dbb9384bc0eea4cU,
  0x3db06936bdf12b60U, 0x3d7a1a053d51e820U, 0xbd253ee83de83cbcU, 0xbde3c569bd0a72faU,
  0x3d93b42abcbde7a4U, 0x3d530161bdab711fU, 0xbbd30161bdb5fdfdU, 0xbde031773d238778U,
  0xbdb8a135baa8cde7U, 0x3e03e0dc3ca8cde7U, 0xbd62d4ae3d7d34daU, 0xbd62d4ae3da62aafU,
  0x3dd05e293d9e4109U, 0xbca8cde7bd83e0dcU, 0xbb28cde73dc32e13U, 0x3bfd34da3cc87482U,
  0xbdbb446c3e068414U, 0xbcb35ac5bdd5a498U, 0x3d0e6dbb3dbb446cU, 0xbd03e0dcbddaeb08U,
  0x3d7d34da3d487482U, 0xbaa8cde7be068414U, 0xbcb35ac53deabe55U, 0x3df2a7fc3d9b9dd1U,
  0xbc681b1ebb7d34daU, 0xbd77ee6bbdbde7a4U, 0x3aa8cde73dbde7a4U, 0xbcdd8e3fbbd30161U,
  0xbc93b42a3db8a135U, 0xbdb8a135be18fa99U, 0xbc9e4109bdb35ac5U, 0xbe12628ebdd847d0U,
  0x3d8e6dbbbcbde7a4U, 0xbdb8a1353d8bca83U, 0x3d4874823d4dbaf2U, 0xbda0e440be277c4bU,
  0xbd93b42abe068414U, 0x3d238778bdb0b78eU, 0x3c3de7a4bd9110f3U, 0x3da8cde73c89274cU,
  0xbb28cde73c13b42aU, 0x3de81b1e3de81b1eU, 0x3cd30161bdb8a135U, 0xbe0684143d62d4aeU,
  0xbdffd6203d198079U, 0x3dccab4cbcfb2f52U, 0xbda5217bbdffd620U, 0x3e13aff93d35694aU,
  0xbe05bb913dbc637eU, 0x3dda9fb53dfb2f52U, 0xbd4cab4cbd06e544U, 0xbdfd82b93da2ce14U,
  0xbd1032dfbdcefeb3U, 0xbcccab4c3dc8047fU, 0xbdda9fb5bc823e76U, 0xbd0b8c113d5f4682U,
  0xbcdf4682bc94d9acU, 0xbdd3a5813d94d9acU, 0x3c3a10173dba1017U, 0xbcfb2f52bb94d9acU,
  0x3d5a9fb53d823e76U, 0x3deae7833d06e544U, 0x3dda9fb5bd998079U, 0x3d6d3aeabcf1e1b8U,
  0xbdca57e63e05bb91U, 0xbde3ed4f3cf1e1b8U, 0x3db0c27c3d63ed4fU, 0x3ddf46823dffd620U,
  0xbc9e27473da2ce14U, 0x3dffd6203dba1017U, 0x3e0938ab3df1e1b8U, 0x3d55f8e73c9e2747U,
  0xbd9e2747bde8941dU, 0xbdd84c4ebdae6f16U, 0xbb5f46823dcefeb3U, 0xbd3a10173d9e2747U,
  0x3d2c1bafbddcf31bU, 0xbd5f46823da9c848U, 0xbd2774e23d5f4682U, 0xbcccab4cbd928645U,
  0xbdf1e1b83e05bb91U, 0xbd06e5443df4351eU, 0xbdc10a4bbdcefeb3U, 0x3e0b8c113cba1017U,
  0xbda1db4b3d9d98e4U, 0xbc4c7352bc5d7ceeU, 0x3bee868abcee868aU, 0xbc3b69b5bd151416U,
  0x3da61db2bdf0a7bdU, 0xbd2ea280bcff9026U, 0x3b884ce1bd840a7aU, 0x3b4c7352bd261db2U,
  0x3daa60193d593a87U, 0xbde601bcbd2ea280U, 0x3d840a7abd2a6019U, 0xbd6a4423bd3b69b5U,
  0x3cbb69b53d50b5b9U, 0x3c19567dbdce9485U, 0x3da1db4bbcc3ee83U, 0x3dec65563dff9026U,
  0xbcee868a3db94882U, 0x3c19567dbd0c8f48U, 0x3cbb69b5bd37274eU, 0xbddb5bbabce601bcU,
  0xbe073c47bd084ce1U, 0xbc90d1af3d4830eaU, 0xbdff90263dd93a87U, 0xbce601bcbd90d1afU,
  0x3dac814dbbcc7352U, 0x3dc1cd50bd8a6e15U, 0x3dc60fb7bdc60fb7U, 0x3c5d7ceebdcc7352U,
  0x3db5061bbd862badU, 0xbd43ee833cc3ee83U, 0xbc99567d3dd4f820U, 0x3d97354a3d99567dU,
  0x3e00d8ad3d81e946U, 0x3d10d1afbb884ce1U, 0xbcf70b58bdd4f820U, 0xbca1db4bbc19567dU,
  0x3bee868abd9d98e4U, 0xbcff90263d72c8f1U, 0xbc90d1af3e062badU, 0x3d21db4b3dbb69b5U,
  0xbdc556243d1829bfU, 0x3d8ea7233d9107caU, 0x3e08b5823d9107caU, 0xbddabc033e006339U,
  0xbd95c9183da8ce50U, 0x3d7743d6bcc7b6cbU, 0xbda1ac5bbc9829bfU, 0xbd9f4bb4bd936871U,
  0x3de43e9ebdab2ef7U, 0x3e0b1629bdc094d6U, 0x3e0654dbbdb4b193U, 0x3dd85b5cbe02c3e0U,
  0xbcc7b6cbbd052487U, 0xbd2ff0453e08b582U, 0xbdca17723c513967U, 0x3cf743d63dd39a0eU,
  0xbb643e9ebd7c0524U, 0xbda1ac5b3dd13967U, 0xbd0524873ca1ac5bU, 0xbdd85b5c3dc55624U,
  0xbd82c3e0bdca1772U, 0x3a9829bfbd9f4bb4U, 0x3d47b6cbbdbbd388U, 0xbdedc13abd1ceb0dU,
  0xbe136871be16f96cU, 0xba9829bf3d5abc03U, 0x3dd39a0e3d55fab5U, 0x3da1ac5b3c052487U,
  0x3b1829bfbddf7d51U, 0xbcdabc03bd5f7d51U, 0xbdcc7819bda8ce50U, 0xbdb972e13dedc13aU,
  0xbc643e9ebd6dc13aU, 0x3c052487bde8ffecU, 0x3c8524873d7743d6U, 0x3d0ea7233e0ea723U,
  0x3d21ac5b3cb4b193U, 0xbc7743d6bd47b6cbU, 0x3da66da9be01938dU, 0x3d5abc03bd936871U,
  0x3e0238d23dbefe00U, 0x3d2949dd3e09d177U, 0x3ddb34fabddf8c35U, 0x3ddf8c353cbefe00U,
  0x3d0f3e803d209b69U, 0x3da4f2a3bd9a1892U, 0xbcb64f8cbc505ae9U, 0xbc9c442fbd8ae746U,
  0x3cf314babc9c442fU, 0x3d9395ba3d97ecf5U, 0xbdeebd80bdab757aU, 0xbd9a18923dec91e3U,
  0x3d2da1183cd9095dU, 0xbd0ae746bdd6ddc0U, 0xbe06900c3d6a6646U, 0x3d800d353c9395baU,
  0x3da71e40bddd6098U, 0x3d24f2a3bdc3553aU, 0x3dec91e3bd0ae746U, 0x3ddd6098be000d35U,
  0x3de83aa93cf314baU, 0xbd43553abd6a6646U, 0xbcd9095dbd31f852U, 0x3d1395ba3dfdeeccU,
  0x3c9c442f3d47ac75U, 0x3d88bba93dab757aU, 0xbd9395ba3dc1299dU, 0xbd06900cbcea6646U,
  0x3dce2f4c3d8d12e3U, 0xbd24f2a33d8d12e3U, 0x3c0ae746bda2c706U, 0xbdb64f8cbd776bf5U,
  0xbda949dd3dcc03afU, 0xbc505ae9bc9c442fU, 0x3dd05ae9bdd6ddc0U, 0x3df997923d9e6fccU,
  0xbd7bc32fbdc1299dU, 0x3b8ae746bdbaa6c6U, 0x3cd9095dbd1395baU, 0x3e06900c3dc1299dU,
  0x3d33bef03dd61be9U, 0xbc1406a73d042a83U, 0xbe02d82b3c9e996aU, 0x3e1161f7bc1406a7U,
  0xbda3e2ccbd537738U, 0xbd58c09abd96ab58U, 0xbce89cbe3dc63fc5U, 0xbcb3bef0bcd37738U,
  0x3d3908513d0973e5U, 0x3da3e2cc3db663a1U, 0x3e27d9d53d86cf34U, 0xbcc8e475bd195009U,
  0xbd042a833dbbad02U, 0x3d537738bd58c09aU, 0x3e1406a7be17fdb0U, 0x3df878e23c9406a7U,
  0xbd9bf4b93d732f81U, 0x3d1e996a3d6de61fU, 0x3dcb8926bdf878e2U, 0x3c537738bdd61be9U,
  0xbd689cbe3d9406a7U, 0x3c689cbebda92c2dU, 0xbcc8e475bdeb416fU, 0xbdfdc244bcc8e475U,
  0xbd9406a73db3bef0U, 0x3d8973e5be0973e5U, 0x3db90851be0ac63dU, 0x3d732f81bd8ebd46U,
  0xbe0ac63dbdb11a3fU, 0x3dfdc244bde5f80dU, 0xbc8973e53dce2dd7U, 0x3e1950093dde09fbU,
  0xbdc8e4753dc8e475U, 0x3da3e2cc3dc0f663U, 0xbd48e475bd8ebd46U, 0x3da92c2d3d7878e2U,
  0x3d63535cbdc0f663U, 0xbdf878e2bc1406a7U, 0xbe08218c3e00337aU, 0xbaa92c2d3d0973e5U,
  0xbb7eba3a3d1f3464U, 0x3e287dd93d39bd20U, 0x3e0ca17b3dac78c2U, 0xbe0752efbdb46e94U,
  0xbde4317f3cfeba3aU, 0x3e1892353e25d693U, 0x3d2482f03dd445dbU, 0x3dbc64663d7eba3aU,
  0xbc94974c3cb46e94U, 0xbcdee2f33dcc5009U, 0xbda1dbaabddee2f3U, 0xbdac78c2bdb46e94U,
  0xbd91f0073d8ca17bU, 0xbd0f48c13da9d17cU, 0x3daf20083c9f3464U, 0x3ba9d17c3d820463U,
  0x3d9f3464bdcef74fU, 0x3deece963dd19e95U, 0xbca9d17cbd5445dbU, 0x3c7eba3abd91f007U,
  0xbd6ece963db1c74eU, 0x3cb46e94bd49a8c3U, 0x3dac78c2bdf96baeU, 0xbaa9d17cbd99e5d8U,
  0x3ca9d17c3d741d22U, 0x3dc45a37bdc9a8c3U, 0x3d91f0073cc9a8c3U, 0xbdbc64663dd19e95U,
  0xbdd6ed21bdec2750U, 0x3d89fa353db715daU, 0x3b7eba3abc14974cU, 0x3d09fa353d04aba9U,
  0xbd2f2008be020463U, 0xbd9f34643d1f3464U, 0x3e0df51e3d39bd20U, 0xbd346e943dcef74fU,
  0x3d7eba3abc14974cU, 0xbca9d17cbdfc12f4U, 0x3df175dcbd94974cU, 0x3dd6ed21bde9800aU,
  0xbde4f5ba3d0c11cfU, 0xbd5ce1023d9174f4U, 0x3d1c3b40bc014b84U, 0x3e0807733ddf9294U,
  0xbdea58df3dccb791U, 0x3d06aeaa3d9c3b40U, 0x3df51f2abd9989adU, 0xbd8ec362be09603cU,
  0x3dc7546cbd96d81aU, 0x3da9b31dbd6d0a72U, 0x3d86aeaa3de7a74cU, 0x3c2c64b0bc8c11cfU,
  0x3dea58df3dc7546cU, 0xbda9b31dbd372afbU, 0xbd014b84baac64b0U, 0xbde7a74c3d96d81aU,
  0xbbac64b03ddf9294U, 0xbdb9dc8ebcd77ddcU, 0xbca19e653dda2f6fU, 0xbca19e65bdf26d98U,
  0xbb814b84bdb1c7d6U, 0x3d31c7d63da19e65U, 0x3db479683e0ec362U, 0xbd0c11cf3cb72afbU,
  0xbbac64b03e2b0be7U, 0x3d77d0bd3cd77ddcU, 0xbd27018abd7d33e2U, 0xbdf7d0bd3d89603cU,
  0xbe0555e0bc8c11cfU, 0xbda19e65bd7d33e2U, 0x3d3c8e203daf1643U, 0xbded0a72bc8c11cfU,
  0x3d9426873db72afbU, 0x3d5ce1023c2c64b0U, 0x3cf7d0bdbe1830e3U, 0x3d014b84bdb1c7d6U,
  0xbd2c64b03db9dc8eU, 0xbc16d81abdb47968U, 0x3d06aeaa3da7018aU, 0x3cc1f146be22f72eU,
  0xbe0a3158bcc3abd1U, 0x3d9efb9a3d9efb9aU, 0xbd797b113dcb0242U, 0xbd97a528bde5e9e2U,
  0x3e1b5061bd216dc0U, 0xbddc214bbdab3657U, 0xbd92c0ddbd34feeeU, 0x3de5e9e2be0ddc91U,
  0xbceace2ebcb9e33aU, 0x3dcd74683dbec785U, 0x3e02dae73e13f9f0U, 0xbdc61df73dada87dU,
  0xbd301aa2bd0ddc91U, 0x3de377bdbd43abd1U, 0xbd4d74683de377bdU, 0x3cb9e33abd92c0ddU,
  0xbdbec7853dd258b4U, 0x3de85c08bd88f846U, 0x3c92c0ddbd8413faU, 0xbd8b6a6b3e0413faU,
  0xbd6ace2ebdb28cc8U, 0x3cf496c53c301aa2U, 0xbdc3abd13da3dfe5U, 0x3c1c89743dab3657U,
  0xbe1187cabdd9af25U, 0x3d34feee3ceace2eU, 0x3d8ddc91bdde9371U, 0xbdeace2ebd08f846U,
  0x3ce105973d9c8974U, 0xbbeace2ebdd4cadaU, 0x3d8ddc91bdd4cadaU, 0xbcfe5f5c3e02dae7U,
  0xbd8b6a6bbddc214bU, 0x3cb9e33abd7496c5U, 0x3c1c8974be054d0dU, 0x3df97b11be0068c1U,
  0xbdf2249fba9c8974U, 0x3cfe5f5c3beace2eU, 0x3d6105973dc139abU, 0xbcc3abd13d797b11U,
  0xbcf17ce6bcc4c495U, 0xbd1c851a3df5f5baU, 0xbdac2c023dd6a7e8U, 0xbc56a7e83da0fdeeU,
  0xbc7a6e8f3cfa6e8fU, 0x3dd6a7e83cf17ce6U, 0xbd0628f1bd180c45U, 0xbda9ef983dc93d6aU,
  0xbe0dfc66bd0aa1c6U, 0x3a8f1a9bbd0628f1U, 0x3e08655c3c688b3cU, 0xbd32e1423cbbd2ebU,
  0xbd56a7e8bd8cde31U, 0xbc32e1423c0f1a9bU, 0x3db2e142bd5f9992U, 0xbd688b3cbdcff2a9U,
  0x3de1d5fd3dc4c495U, 0x3dcb79d4be0628f1U, 0x3dc93d6abd2576c3U, 0xbd9a48af3dc4c495U,
  0x3d5b20bd3df3b950U, 0xbd180c45bb8f1a9bU, 0xbde88b3cbd493d6aU, 0xbddd5d28bccdb63fU,
  0x3cfa6e8fbd8628f1U, 0xbdbe0f56bd5b20bdU, 0x3d01b01cbe02ce52U, 0x3dae686d3dd8e453U,
  0xbdef407bbe08655cU, 0xbdbbd2eb3dc04bc0U, 0x3d1c851a3ded0411U, 0x3c44c4953ca9ef98U,
  0xbd939370bd915705U, 0xbe0747273d939370U, 0xbc20fdeebdc4c495U, 0xbe0aa1c63d980c45U,
  0x3dac2c02bd0628f1U, 0x3ddd5d28bdcdb63fU, 0x3d81b01c3cb2e142U, 0x3dd22f143dc04bc0U,
  0x3d4d8e593d9d97cdU, 0x3dc46b94bde21c95U, 0x3cdb42813cd21fbcU, 0x3d5fd3e4bd5fd3e4U,
  0x3e04782e3d7b3c34U, 0xbd8d9af33ced880cU, 0x3db226093bb6b76cU, 0xbdf6aad1bd7b3c34U,
  0x3de21c95bd1b4f1bU, 0x3e0c769b3dd8f9d0U, 0x3dbb48ce3d99066aU, 0xbd56b11e3e07e538U,
  0xbda6ba923e1107fdU, 0x3d9b4f1bbc890991U, 0x3d7fcd963ced880cU, 0x3dc8fcf6bd290343U,
  0x3d8d9af3bd36b76cU, 0x3da471e1bdf46220U, 0xbcad94a63dc222e2U, 0x3d5fd3e43e0a2de9U,
  0x3cf6aad1bd122c56U, 0xbd9fe07ebc122c56U, 0x3d4d8e593dd4686dU, 0xbcf6aad13ddd8b32U,
  0x3db6b76c3e0d9af3U, 0x3da903433c122c56U, 0x3e04782ebddd8b32U, 0xbd72196ebe0353d5U,
  0xbc890991bd2471e1U, 0x3dbfda313df8f382U, 0xbd4d8e593cdb4281U, 0xbde465463d3b48ceU,
  0xbcbfda31bd090991U, 0xbc6d880cbc48fcf6U, 0xbdbb48cebd6d880cU, 0x3da6ba92bd8d9af3U,
  0xbd446b94bcb6b76cU, 0xbdd21fbc3da90343U, 0xbd9b4f1bbbdb4281U, 0xbe0c769bbdeb3f5aU,
  0x3dab0709bd8fc322U, 0x3cda1f3c3da11ce3U, 0xbc94b8343db276a5U, 0x3d5f144fbd3276a5U,
  0x3dab07093e0e85ddU, 0x3cda1f3c3e1aea8cU, 0x3d835e73bdf06e10U, 0xbd7cd2bf3c0ace0fU,
  0x3da611f6bd9732beU, 0xbddc99c5bde40961U, 0xbd3276a53d8fc322U, 0x3df2e89abdb9e641U,
  0x3d23976d3cd03516U, 0xbd6409613c3276a5U, 0x3d0ace0fbcb276a5U, 0xbe0e85ddbd464af0U,
  0xbd85d8fcbd80e3e9U, 0xbcc64af03b6df387U, 0x3dd2afa0bc1ea25aU, 0xbda11ce33d8fc322U,
  0xbcf7ddadbc464af0U, 0xbe05d8fcbd6df387U, 0xbe1d6515bdf56323U, 0x3c9ea25abddf144fU,
  0xbc80e3e9bdeb78feU, 0xbd80e3e93d835e73U, 0x3d8ace0f3d8ace0fU, 0xbde683eb3d9ea25aU,
  0x3d5f144f3dad8192U, 0x3b6df387bdc8c57aU, 0xbc5a1f3cbdda1f3cU, 0xbe02212e3c5a1f3cU,
  0xbd2d8192bdad8192U, 0x3c80e3e93dcb4003U, 0x3dda1f3cbbc64af0U, 0xbdda1f3c3dbc60cbU,
  0xbc3276a5bd8d4898U, 0x3d835e73bc1ea25aU, 0x3dd52a29bd80e3e9U, 0xbd5f144f3d3276a5U,
  0x3d8f03a43dd68576U, 0x3bcc4e583dcc4e58U, 0xbc84cc863ba371e0U, 0x3dd9133ebc8f03a4U,
  0xbd8c75dc3df29d08U, 0x3ce0bc943bcc4e58U, 0xbdb2c48d3d193ac2U, 0xbdbcfbab3cff61eeU,
  0xbce0bc943bcc4e58U, 0x3dde2eccbd96acfaU, 0xbdc4a502bd4732c9U, 0x3ceaf3b2bdb55254U,
  0x3c993ac2bba371e0U, 0xbdab1b363d2da8feU, 0xbd193ac23d941f33U, 0x3c37e01c3d752ad0U,
  0x3de865eabd2da8feU, 0x3e1d0f6dbd700f41U, 0xbc0f03a4bc4c4e58U, 0xbdcc4e583db55254U,
  0xbd9bc88abd823ebeU, 0x3e222afc3c752ad0U, 0xbd1e5651bd6af3b2U, 0xbe12d84fbd4c4e58U,
  0x3ce0bc94bda88d6fU, 0x3dada8febd3cfbabU, 0x3d5169e73ceaf3b2U, 0x3dd685763bf52ad0U,
  0xbdf00f413d4732c9U, 0x3b752ad0baa371e0U, 0xbb752ad0bc37e01cU, 0x3d8c75dc3d7a465fU,
  0x3dc9c0903ce0bc94U, 0xbb2371e03dfcd426U, 0xbdada8fe3ccc4e58U, 0xbc84cc86be0385a2U,
  0xbc4c4e58bdd68576U, 0xbd32c48d3e075a4eU, 0xbd8f03a4bc37e01cU, 0x3cada8fe3c37e01cU,
  0xbd908dd6bd2c7351U, 0xbdee632c3dd27db1U, 0xbd7d9a86be0668f0U, 0x3c8e049d3c8e049dU,
  0x3c8e049d3cac7351U, 0xbd6e632c3d369837U, 0x3d6e632c3cd506ebU, 0x3dcd6b3ebe052453U,
  0x3debd9f23cb69837U, 0xbdf5fed93dd27db1U, 0x3d9ab2bdbd95a04aU, 0xbde1b50bbd9ab2bdU,
  0xbd03dfb6bdc5cf91U, 0x3d3698373bf3759fU, 0xbd5506eb3d03dfb6U, 0x3d81567c3d982983U,
  0xbdf88812bda9ea17U, 0x3aa24e6a3d7d9a86U, 0xbd5f2bd2bd643e45U, 0xbd3baaabbd131710U,
  0x3daefc8a3db40efeU, 0x3d40bd1ebd88f229U, 0xbd08f2293ca24e6aU, 0xbc9829833d81567cU,
  0x3dbbaaabbda760ddU, 0xbdac7351bd08f229U, 0xbd5f2bd23dcae204U, 0xbcac7351be029b19U,
  0xbd1d3bf7bc4ae204U, 0xbdf3759fbc83dfb6U, 0xbda4d7a4bd40bd1eU, 0x3c8e049dbdcae204U,
  0x3d9fc5303d2760ddU, 0xbddca2983c224e6aU, 0x3e03dfb6bb224e6aU, 0x3e2109cdbd788812U,
  0xbd8668f0bdc5cf91U, 0xbdcd6b3e3ccae204U, 0xbd3698373dc34658U, 0x3d8e049dU,
  0xbb82437bbaadaf4fU, 0x3d87b0f6bdec1a4fU, 0x3d436539bcd91b23U, 0xbda841d53c2daf4fU,
  0x3d6ed10d3c6ed10dU, 0xbd07b0f63d2daf4fU, 0x3dde889dbd8a67b3U, 0x3d9542a8bcb88a44U,
  0x3d388a44bd87b0f6U, 0xbd9d66e03d02437bU, 0xbd7f197c3e0bc312U, 0xbdcb89713dcb8971U,
  0xbdb31cc93e2c53f0U, 0x3dc0ae7c3b82437bU, 0xbd128beb3e169e07U, 0xbd02437bbbd91b23U,
  0x3d436539bde96392U, 0xbdfc62bf3d928bebU, 0xbd591b233d743e87U, 0x3de3f618bda01d9dU,
  0xbcf9ac02bb82437bU, 0xbc6ed10dbde3f618U, 0x3de3f6183cce402eU, 0x3cc36539bc17f965U,
  0x3d591b23bc82437bU, 0xbe0e79cfbd84fa38U, 0x3d63f6183d696392U, 0x3d2841d5bcc36539U,
  0xbd1d66e0bda841d5U, 0x3dd0f6ebbb82437bU, 0x3cb88a443db88a44U, 0xbdb0660c3df6f544U,
  0x3de13f5a3d82437bU, 0x3cf9ac02bcf9ac02U, 0xbe201d9dbd8fd52dU, 0xbdadaf4f3c17f965U,
  0xbaadaf4f3b82437bU, 0x3d8a67b33c591b23U, 0xbcce402ebdc36539U, 0xbe17f9653d9542a8U,
  0x3cd06496bde28397U, 0x3cf4a2993dc51134U, 0x3d8360ce3d792a5aU, 0x3cac2692bd597416U,
  0xbdb0ae523d231711U, 0xbc353613bbb53613U, 0x3ceb9318bdd97416U, 0x3c2317113e06c69eU,
  0x3a90f80fbdf92a5aU, 0x3e0fd61f3c9a0790U, 0xbd54ec56bd1a0790U, 0x3d0c704f3dd73036U,
  0xbd6283973bfdb21aU, 0xbe0eb42f3d3e4594U, 0x3df92a5abd475515U, 0xbd42cd54bd2c2692U,
  0x3c5974163d8a2c6eU, 0x3cbe45943da31711U, 0xbd8c704f3d7db21aU, 0xbd9a07903da0d331U,
  0xbde4c778be011cedU, 0xbcfdb21a3cc75515U, 0xbc90f80fbdd4ec56U, 0xbdd974163d1e8f50U,
  0xbd4bdcd53dbc01b3U, 0xbe07e88e3c597416U, 0xbe0a2c6ebde4c778U, 0xbde70b583b10f80fU,
  0xbde28397bc353613U, 0x3d8360cebe07e88eU, 0xbc7db21abd5dfbd7U, 0xbdc755153cac2692U,
  0x3db0ae52bd957fcfU, 0x3d8360cebd475515U, 0x3db2f233bc87e88eU, 0xbdce20b53cf4a299U,
  0xbd07e88e3de28397U, 0x3d85a4ae3d90f80fU, 0xbbfdb21abe0d923fU, 0xbbb536133dce20b5U,
  0xbb543dfa3cb9b63bU, 0xbd8912b2bd3e2230U, 0xbb543dfabd86dcb7U, 0x3ddd15e5bd7331afU,
  0x3de181dabdc28e26U, 0x3dc6fa1bbd428e26U, 0xbb0d7ea73d8270c2U, 0x3d9ac287bd91ea9cU,
  0x3ddd15e5be0b48acU, 0x3dbbec363d239a71U, 0xbd8fb4a23d5d15e5U, 0x3dd208003a8d7ea7U,
  0xbda5d06c3ce5edcfU, 0xbd003ac73cb9b63bU, 0x3e0c63aabd86dcb7U, 0x3d6181da3d1ac287U,
  0xbe0b48acbdbbec36U, 0xbc9656913ddadfeaU, 0xbd46fa1bbd86dcb7U, 0xbcb9b63b3c779da4U,
  0xbd239a713dd20800U, 0x3d84a6bd3ddf4be0U, 0x3bb0de513d3e2230U, 0xbdc4c420bd9ac287U,
  0x3e06dcb7bd86dcb7U, 0xbc428e263d04a6bdU, 0xbd9cf881bd9ac287U, 0xbd1f2e7c3b8d7ea7U,
  0xbdcfd2053d4fd205U, 0x3c30de513d9f2e7cU, 0x3d6181dabd1f2e7cU, 0xbde181da3d3e2230U,
  0xbda80666bdfc0999U, 0x3c9f2e7c3d779da4U, 0x3ddadfeabdb78041U, 0xbd8270c23d543dfaU,
  0xbd8912b23cb9b63bU, 0xbdcd9c0b3cc28e26U, 0x3c30de51bc84a6bdU, 0x3d428e263c65edcfU,
  0xbc8aa30ebdc88746U, 0x3ccff49400000000U, 0xbddecf313e1d3452U, 0x3d0f9697bdf790e1U,
  0x3d460d813de63c80U, 0x3d54e81ebd1e7134U, 0xbd8aa30e3de148f6U, 0xbd729d58be0335bfU,
  0x3ddc556cbca85847U, 0xbd8335bfbd3c266eU, 0xbe0f9697bdf29d58U, 0xbde63c80bb9e7134U,
  0x3d6da9ce3d729d58U, 0x3d4b010b3d285847U, 0x3d7790e13df790e1U, 0x3d9bf76fbde8b644U,
  0x3df5171c3d68b644U, 0x3c948a213c460d81U, 0xbdafc5963d0f9697U, 0xbcbc266e3c460d81U,
  0xbd9703e63daad20cU, 0xbdeb30093c80bbfaU, 0xbe0472a1bd8f9697U, 0xbd948a21bc59dba8U,
  0xba9e7134bd80bbfaU, 0xbd8d1cd2bd8aa30eU, 0x3dcff494bdaad20cU, 0xbb1e71343d997daaU,
  0x3de148f63bc60d81U, 0xbdc60d81bda5de82U, 0x3e0472a1bd7c846bU, 0x3d197daa3dafc596U,
  0xbd05af843dc119f7U, 0xbd148a21bd4ff494U, 0x3df023933da85847U, 0x3cb23f5abce3c2bbU,
  0xbdf790e1bd8335bfU, 0x3d4119f73dcd7acfU, 0x3d59dba8bdb732e4U, 0x3dcff4943da5de82U,
  0xbdaa01d23b5f922dU, 0x3dc14bb7bd5ae9ccU, 0x3de8e2ef3d8bbb5cU, 0x3db352943df6dc12U,
  0x3c3a4f26bddd3dfdU, 0xbb950c1ebdc39fe7U, 0xbdb0fe64bdb35294U, 0xbd35a6c5bb150c1eU,
  0xbde68ebe3c026a9aU, 0xbca7ada23bdf922dU, 0xbdc14bb7bc3a4f26U, 0x3b950c1ebcd6416bU,
  0xbd3ef7863e0bbb5cU, 0xbdc39fe73e00166aU, 0x3bba4f263c826a9aU, 0x3d0712fb3cccf0a9U,
  0xbdccf0a9bdf6dc12U, 0x3d27ada2bdc84848U, 0x3d150c1e3d439fe7U, 0xbdb0fe643c950c1eU,
  0xbe026a9abd19b47fU, 0xbd439fe7bdc5f418U, 0xbdf93042bdd6416bU, 0x3d826a9abdaeaa33U,
  0xbd0bbb5cbd9c08afU, 0x3da7ada2bca7ada2U, 0x3e0712fb3e0e0f8dU, 0xbdb7faf5bdac5603U,
  0xbd4cf0a93defdf80U, 0x3dd8959cbcccf0a9U, 0xbc5f922dbb950c1eU, 0x3b150c1e3dca9c79U,
  0x3dd3ed3b3ded8b50U, 0xbd826a9a3df487e1U, 0xbd97604ebe13e206U, 0xbe0e0f8d3d84becbU,
  0xbd92b7ee3db35294U, 0xbcfb8473bda55971U, 0xbda0b110bc4cf0a9U, 0x3c4cf0a9bdfb8473U,
  0xbd507fa6bd126485U, 0xbded5563bbf86c84U, 0xbdbc89373dce47d3U, 0x3d317216bdb17216U,
  0x3d098537bdb81990U, 0xbc96d42cbc66ade9U, 0xbc8515903c851590U, 0x3d8bbd0bbc66ade9U,
  0x3dc568853d786c84U, 0xbd623e423b8df4deU, 0xbd926485bc9fb37aU, 0x3b8df4de3d7cdc2bU,
  0x3dff13ff3d6b1d90U, 0x3de0066e3dc330b1U, 0xbd9264853d35e1bcU, 0x3daf3a42bb0df4deU,
  0x3d1264853c4330b1U, 0x3dc330b13daf3a42U, 0x3e00a5e93c54ef4dU, 0xbce6ade9bdf1c50aU,
  0x3dfcdc2bbd6f8d37U, 0xbd317216bbd4ef4dU, 0xbde23e423da65af4U, 0xbd96d42c3df1c50aU,
  0xbb0df4debd54ef4dU, 0xbddb96c73d1fb37aU, 0x3db3a9e9bdf1c50aU, 0xbd926485bccc0fffU,
  0xbcba5163bdbec10aU, 0xbda423213c1fb37aU, 0xbd9d7ba63bd4ef4dU, 0xbbf86c84bdd72720U,
  0xbd35e1bc3dbc8937U, 0x3d874d643d786c84U, 0xbde0066e3d8bbd0bU, 0xbd098537bc317216U,
  0x3d2d026fbd66ade9U, 0x3d54ef4dbd851590U, 0x3e0cd8f43dd95ef4U, 0x3d242321bd902cb1U,
  0x3db9f290bdb23320U, 0x3da7de8abd812156U, 0x3dc1b201bd5e1a9eU, 0xbcb9f290bda7de8aU,
  0x3dfd1861bdc1b201U, 0xbd58f053bde5da0fU, 0xbdbc87b6bc4e9bbdU, 0x3e0121563e05010eU,
  0x3db9f2903d6d9980U, 0x3dc447273d686f35U, 0x3da2b43e3d4e9bbdU, 0x3caf9dfa3d7d1861U,
  0xbdc447273dce9bbdU, 0x3bf7ee163d5e1a9eU, 0x3d864ba1bdbf1cdcU, 0x3c90a038bd1af4ceU,
  0x3dc44727bc4e9bbdU, 0x3daa73afbe08e0c7U, 0x3d72c3cbbe23fed1U, 0x3d2f9dfa3cd8f053U,
  0xbcaf9dfa3dd65b2eU, 0xbd10a038bd10a038U, 0x3cb9f2903cce9bbdU, 0xbd201f19U,
  0xbde0afc43dde1a9eU, 0x3c4e9bbdbe026be9U, 0x3d72c3cb3d9d89f3U, 0xbd9d89f33e012156U,
  0xbb77ee16bdb9f290U, 0x3dc447273e0b75ecU, 0xbd497172be012156U, 0xbced99803c9af4ceU,
  0xbc2549643dde1a9eU, 0xbc10a038bd254964U, 0xbbce9bbd3d10a038U, 0xbded9980bc9af4ceU,
  0xbdb75d6b3ca54964U, 0x3d93355dbb77ee16U, 0x3d254964be0cc07fU, 0x3c77ee16bdb23320U,
  0x3d10af703db008a6U, 0xbdff9c573de515c7U, 0xbc870a243d2d9f54U, 0xbd9f27623e04a0d2U,
  0xbdd69dd5be192013U, 0x3da8ccaebdb008a6U, 0xbd82377f3d28ccaeU, 0xbc543482bb1a54bcU,
  0x3e16b6c0bd45bc91U, 0x3cca8f373de2ac74U, 0x3dec51c0bd897377U, 0x3de77f1a3dc3533eU,
  0xbe0e461dbd3c1745U, 0xbd23fa08bdd1cb30U, 0xbc870a243bc0e9ebU, 0xbd070a243d4a8f37U,
  0x3e0102d5bdf5f70cU, 0x3e04a0d2bdc5bc91U, 0x3c870a24bc7ac9b2U, 0x3dc5bc91bd7ac9b2U,
  0xbd712466bdb008a6U, 0x3d45bc913bc0e9ebU, 0xbdad9f543d712466U, 0xbdf8605f3d4a8f37U,
  0x3ca3fa08bdfd3304U, 0xbd070a243c070a24U, 0x3d1f2762bde515c7U, 0xbdfd3304bdb9adf2U,
  0xbc2d9f543dbc1745U, 0xbde2ac743d8e461dU, 0x3dd43482be036c28U, 0x3d0bdcca3b677f1aU,
  0xbb677f1a3dbe8098U, 0xbd070a24bdbc1745U, 0x3d62ac743dccf88aU, 0xbd02377f3d10af70U,
  0xbd37449fbcf12466U, 0x3df8605fbc070a24U, 0x3dd69dd5bd677f1aU, 0xbdab3601bd070a24U,
  0xbe075edd3dddba46U, 0xbd8c09dbbcbab7cfU, 0xbdcd63ca3c9eb5d7U, 0x3d955fd93e02b3deU,
  0xbdb86250bdf06641U, 0xbd8e5f5b3c4d63caU, 0x3dacb6d3bd5b64c7U, 0xbcc40dcd3d280bd4U,
  0xbd72bbc13d360cd0U, 0xbd3161d200000000U, 0x3e0adf1cbcd6b9c8U, 0x3d9a0ad83dd46449U,
  0x3d600fc63c9eb5d7U, 0x3d48b8ccbc72bbc1U, 0x3ca80bd43c280bd4U, 0x3cc40dcdbd85095dU,
  0xbd64bac4bd02b3deU, 0x3df766bf3d280bd4U, 0xbd155fd9bda360d5U, 0xbd7c11bebbbab7cfU,
  0x3d9a0ad8be03de9eU, 0xbdaf0c52bdf2bbc1U, 0xbe03de9ebe01891eU, 0x3d2360d53dcd63caU,
  0xbd6e10c23d82b3deU, 0x3ca80bd4bdaa6154U, 0x3d8e5f5b3d64bac4U, 0x3d2cb6d3bd2360d5U,
  0x3df766bf3cc40dcdU, 0x3e1435193d440dcdU, 0x3d2cb6d33de00fc6U, 0x3e08899c3e0c09dbU,
  0x3e03de9e3b955fd9U, 0xbc8c09dbbe01891eU, 0x3d97b558bda5b655U, 0xbcbab7cfbd1eb5d7U,
  0xbcfc11bebd155fd9U, 0xbd97b5583dc8b8ccU, 0x3c02b3de3e08899cU, 0x3d600fc63d90b4daU,
  0x3dee1f523ddc32fcU, 0x3dd1f5143c8524c8U, 0xbd9c3012bdc527b2U, 0xbd5c32fc3dee1f52U,
  0xbd5714083de9005eU, 0xbdd714083d7aecb4U, 0xbd99a0983dfd7c2eU, 0x3de670e43d47b72cU,
  0x3d2e1c68bbccd620U, 0x3deb8fd83bf5cdc0U, 0x3e0005d43d75cdc0U, 0xbddec276bd82954eU,
  0xbdf33e463ce151f0U, 0xbd8f62b03d429838U, 0x3db5cad63dc527b2U, 0xbe1ae855bd97111eU,
  0xbe2296c3bd0f62b0U, 0x3df5cdc0be0005d4U, 0x3df33e46bcccd620U, 0xbd51f5143d6670e4U,
  0x3d6670e4bddc32fcU, 0xbd99a098bdccd620U, 0x3dc008bebe0524c8U, 0x3d9ebf8cbd51f514U,
  0x3d3d79443cd71408U, 0xbe1481a43c75cdc0U, 0xbdeb8fd83d6b8fd8U, 0xbddc32fc3deb8fd8U,
  0x3c385a50bd70aeccU, 0x3dfd7c2eU, 0x3de3e16abd97111eU, 0xbe1ebf8cbceb8fd8U,
  0xbcb85a503d9481a4U, 0xbdee1f523dd1f514U, 0xbca3de80bdf0aeccU, 0xbe1339e73dab8ceeU,
  0xbdd4848ebdbae9caU, 0xbdca46a63ddec276U, 0x3d6b8fd83ba3de80U, 0x3da14f06bd333b5cU,
  0x3d33f4653d81f79eU, 0x3dd1f2763c0bf6f9U, 0xbded70b0bded70b0U, 0xbd10f6a7bda9f50aU,
  0xbd1af6023c5bf1d1U, 0xbdb1748e3c6ff086U, 0xbd90f6a73d95f654U, 0x3d6ff086bd9ff5afU,
  0xbbc7f31bbde5f12cU, 0x3beff0863d47f31bU, 0xbe1eb5c43d01f79eU, 0x3dc07397ba9ff5afU,
  0x3d90f6a7bd65f12cU, 0xbd8e76d03d1af602U, 0xbe0837373cc7f31bU, 0x3dc07397bde37155U,
  0xbd10f6a7be00b7b3U, 0x3d8977223d1af602U, 0x3c47f31bbd60f17eU, 0x3d29f50a3d4cf2c8U,
  0xbcb3f465bdf2705dU, 0xbd7eef8f3b6ff086U, 0x3c5bf1d1bc5bf1d1U, 0x3e00b7b33d95f654U,
  0x3e10f6a73dd971faU, 0x3ca9f50a3c95f654U, 0x3d98762b3de87102U, 0x3dc573443d60f17eU,
  0x3e0ab70ebceff086U, 0xbd33f4653d56f223U, 0xbde5f12c3d9ff5afU, 0x3ce5f12c3d6ff086U,
  0x3dccf2c8bd06f74cU, 0x3dfeef8f3d38f412U, 0x3dc7f31b3cd1f276U, 0x3db1748e3bc7f31bU,
  0x3df2705dbd93767dU, 0x3daef4b7bc33f465U, 0xbd51f2763e0d36e4U, 0x3dbb73e93db6743cU,
  0x3d12d6403dbd778dU, 0xbd8e19aabd9792d7U, 0xbc3d778d3b635c42U, 0x3daf41c93daf41c9U,
  0xbdb8baf63a9792d7U, 0x3c04a07cbe11a71bU, 0x3d84a07c3d423423U, 0x3df64e9d3c9792d7U,
  0xbda826e7be082dedU, 0xbe082ded3d7fc7cbU, 0x3cbd778dbe0bbb5eU, 0x3d46f0baba9792d7U,
  0x3db3fe5fbe0a8c39U, 0x3dc234233dce0b9cU, 0xbd1792d73dcbad51U, 0x3d59e315bd8e19aaU,
  0x3da36a503dd5267eU, 0xbda826e7bd1c4f6eU, 0x3da5c89bbd824231U, 0xbe11a71bbce35c42U,
  0xbd1792d7bdd069e8U, 0x3e0371563dd2c833U, 0x3b9792d73d8bbb5eU, 0xbdce0b9cbd46f0baU,
  0x3e0a8c393ddc4160U, 0x3d5069e8bcd069e8U, 0x3dffc7cb3daa8532U, 0x3da10c04bdbfd5d8U,
  0x3d210c04bc84a07cU, 0xbcecd5703c84a07cU, 0xbda5c89bba9792d7U, 0x3e05cfa2bdbd778dU,
  0x3da36a50bd33fe5fU, 0xbcaa8532bde5ba8eU, 0x3d46f0babdde9facU, 0xbdce0b9cbe1663b1U,
  0x3d5069e8bd5e9facU, 0xbdd069e83c84a07cU, 0xbd7fc7cb3b635c42U, 0x3daf41c9bd7fc7cbU,
  0x3d20cb523dbf36faU, 0xbd6aac333df58981U, 0x3da2f795bd3685efU, 0xbd3ade75bd9a468aU,
  0x3c735d3e3da523d8U, 0xbe09fa953c61fb28U, 0xbcfc0e4abd297c5eU, 0x3db8b232bcd94a1cU,
  0xbc9c72cd3decd876U, 0x3d848bedbd9a468aU, 0xbd0f693cbdeaac33U, 0x3bd099113d594a1cU,
  0x3db459ac3cadd4e4U, 0xbdd099113d803368U, 0xbc735d3ebd9c72cdU, 0xbcd94a1c3de1fb28U,
  0xbdef04b93dce6cceU, 0xbb8b10b63d6f04b9U, 0x3badd4e43b0b10b6U, 0xbde4276b3d86b830U,
  0x3c93c1c1bc8b10b6U, 0xbe014989bda7501bU, 0x3bd09911bd8b10b6U, 0xbd8f693cbbd09911U,
  0xbe05a20fbc2dd4e4U, 0x3deaac333c735d3eU, 0x3dbf36fabd981a47U, 0x3badd4e43dce6cceU,
  0x3de87ff03dfc0e4aU, 0x3a8b10b6bc509911U, 0xbd8b10b6bc8b10b6U, 0xbdb685efbd88e473U,
  0x3d825fab3d93c1c1U, 0x3dc7e806bcd09911U, 0x3dd94a1cbd3685efU, 0xbdeaac33bb509911U,
  0x3e003368bcc7e806U, 0xbdc38f803d4c408bU, 0x3da7501bbd0b10b6U, 0xbd735d3ebd47e806U,
  0xbdd62e1a3d94773bU, 0x3daccdec3e1a8ce7U, 0x3d42b58c3d884be2U, 0xbc084be23cb8f945U,
  0x3d8d2a06be0e618eU, 0x3db41b223c920829U, 0x3ddd7b4fbdff8e48U, 0xbd16e64cbcb8f945U,
  0x3de737963caf3cfeU, 0x3b1bc4703cc2b58cU, 0xbbe9a6a8bd64c884U, 0xbcd62e1a3d8abaf4U,
  0xbd94773b3da0a294U, 0x3d85dcd03dcc71d3U, 0xbdb8f945bdff8e48U, 0xbdf841123d7d1f36U,
  0xbda7efc93d7362efU, 0xbc7d1f36bd0d2a06U, 0xbd036dbebd2580b7U, 0x3daccdec3da7efc9U,
  0xbce9a6a83c084be2U, 0x3c42b58cbda0a294U, 0xbe036dbe3dd14ff6U, 0xbd084be23d836dbeU,
  0xbe133fb2be0bf27dU, 0xbdc2b58cbd8d2a06U, 0xbe09836b3db8f945U, 0xbdee84cc3c7d1f36U,
  0xbdb8f9453daccdecU, 0x3d7362efbd99555eU, 0x3d99555ebd69a6a8U, 0xbb1bc470be0abaf4U,
  0x3dbb68573df84112U, 0x3e0bf27dbcaf3cfeU, 0xbca580b7bd920829U, 0x3e00feadbc562e1aU,
  0xbc9bc470bd7362efU, 0xbd38f945bd1bc470U, 0x3d8d2a063d562e1aU, 0x3dd62e1a3e1a8ce7U,
  0xbce130443e1b7cc1U, 0xbd76a294bce13044U, 0xbd80adde3d8b6706U, 0x3cebe96c3dc104cdU,
  0x3d4bbdf4bd00addeU, 0x3d76a2943dae40c7U, 0x3cf6a2943d7bff28U, 0xbdbe5683bd5bd3b0U,
  0xbdfead723dce6c3eU, 0x3d20d955be0b6706U, 0xbd0b6706be16202dU, 0xbde3de8e3d88b8bcU,
  0x3c4104cdbe0f6c74U, 0xbdebe96cbc16202dU, 0xbcd6771c3da635e9U, 0xbca0d955be00addeU,
  0xbdd11a883da8e433U, 0x3e0e15503dce6c3eU, 0xbda0d955bd466161U, 0x3d10c399bd80addeU,
  0x3e0e1550bc6be96cU, 0x3d3ba839bdce6c3eU, 0xbda8e4333aab927dU, 0xbe2a3b583d2b927dU,
  0x3dfead72bdebe96cU, 0xbd88b8bcbd80addeU, 0x3d00addebd714600U, 0x3d9e2b0bbdfead72U,
  0xbdebe96cbcc104cdU, 0xbdd3c8d23da635e9U, 0x3d0b67063d98ce77U, 0xbdd92566be0f6c74U,
  0xbd8b6706bc96202dU, 0x3de93b22bda8e433U, 0xbd714600bdbba839U, 0x3bd6771cbcd6771cU,
  0xbdab927d3d10c399U, 0xbdb64ba53e076197U, 0x3df14600bcf6a294U, 0xbd90c399bb2b927dU,
  0xbdb16e32bd754581U, 0x3d7a7d74be19f26fU, 0x3e0276acbd50bde0U, 0xbcf00d8f3dddc9beU,
  0xbdb9421d3dcb85eeU, 0xbd21c65b3de839a3U, 0xbd7a7d743ddb2dc5U, 0x3d1756763dbe7a10U,
  0xbe0512a5bcfa7d74U, 0xbdbbde173d6ad59cU, 0xbda46254be0276acU, 0xbd26fe4d3da1c65bU,
  0xbd4116093d8512a5U, 0xbdbbde17bdbbde17U, 0xbc3bde17bdc8e9f5U, 0xbdffb566bd921e83U,
  0x3d1756763dd5f5d3U, 0x3d1c8e683db6a624U, 0xbda46254baa6fe4dU, 0x3d3bde17bded7195U,
  0x3bd0bde03c3bde17U, 0x3d50bde03e25b050U, 0x3dbbde17bd5b2dc5U, 0xbaa6fe4d3e03c4a9U,
  0xbcb16e32bd464dfbU, 0x3dd5f5d33d4b85eeU, 0xbdc64dfb3da6fe4dU, 0xbc7a7d74bdc3b202U,
  0x3d07ae9f3d94ba7dU, 0xbd99f26f3d99f26fU, 0x3ce59daabcf00d8fU, 0xbb7a7d743d175676U,
  0xbdead59c3d8276acU, 0xbcd0bde03d7a7d74U, 0xbdb6a6243d975676U, 0x3c26fe4dbde065b7U,
  0x3db16e32bdb6a624U, 0xbd1756763e03c4a9U, 0x3cdb2dc53dffb566U, 0xbdd891cc3dead59cU,
  0xbd97783b3d39617aU, 0x3d831f7b3d2bd0faU, 0xbc87a4fb3ca2c5faU, 0xba90affb3cbde6f9U,
  0xbca2c5fabbfd33f7U, 0xbd548279bd15357bU, 0xbd6fa378ba90affbU, 0xbdc6f1f9bd89e7bbU,
  0x3ddb4ab8bddd8d78U, 0x3d97783b3d5d8d78U, 0x3bd907f83df428f8U, 0x3d87a4fb3d4b7779U,
  0x3df428f83d80dcbcU, 0x3d6212f83da74b7aU, 0x3da74b7a3c22c5faU, 0xbd07a4fbbdd23fb9U,
  0xbd85623bbd22c5faU, 0xbe06839b3dae13baU, 0xbe0f8e9b3d34dbfaU, 0x3d07a4fb3d6b1df8U,
  0xbceb1df83c7d33f7U, 0x3dbba43abde8db38U, 0xbdb2993abb5907f8U, 0x3d22c5fabd6212f8U,
  0x3d97783bbd2bd0faU, 0x3c7d33f73d87a4fbU, 0x3c34dbfa3cb4dbfaU, 0xbdd907f8bc46f1f9U,
  0x3c99bafbbcc6f1f9U, 0xbd426c79bdb0567aU, 0x3dc4af393d548279U, 0x3dbde6f9bcc6f1f9U,
  0xbe06839bbd426c79U, 0xbd78ae77bc46f1f9U, 0x3e05623b3da98e3aU, 0x3d548279bdd23fb9U,
  0x3dff76b7bda74b7aU, 0x3ddd8d783de69878U, 0xbe00dcbcbde8db38U, 0xbdbba43abd0c2a7bU,
  0x3d9c6d313dda0c91U, 0x3c04b9bd3ce3878cU, 0xbdaaa5a93dc2591dU, 0xbe12f2353db1c1e6U,
  0x3d767d83bdda0c91U, 0x3da12aae3dcbd419U, 0xbd9ecbef3daaa5a9U, 0x3daaa5a9bc8e34b8U,
  0xbd71c005bdb1c1e6U, 0xbd8bd5f9bc2aa5a9U, 0xbbbd9ba0bbbd9ba0U, 0xbdce32d7bd89773aU,
  0xbdc4b7dcbdb420a5U, 0xbd12f2353d12f235U, 0xbd554f14bddeca0fU, 0x3b97afb3bced0288U,
  0x3d97afb33e0bd5f9U, 0xbced02883e038a5dU, 0x3dd54f143d7ff87eU, 0xbca12aaebd8e34b8U,
  0x3db8de22bcaaa5a9U, 0xbe0e34b83d212aaeU, 0x3d3d9ba0bd509196U, 0xbd09773a3e09773aU,
  0xbdb1c1e6bdad0468U, 0xba97afb3bd9a0e72U, 0x3d12f235be07187bU, 0xbc5091963d04b9bdU,
  0xbc3d9ba0ba97afb3U, 0xbe025afebbe3878cU, 0xbd3420a53ca12aaeU, 0xbd4bd419be168054U,
  0x3d42591d3d92f235U, 0x3d09773a3da846ebU, 0x3d38de22bd71c005U, 0x3cf67d833d89773aU,
  0xbd5a0c91bd7ff87eU, 0x3ddc6b50bdcbd419U, 0xbc8e34b8bc84b9bdU, 0x3d4bd4193d1c6d31U,
  0x3e1f2aee3ddf15dfU, 0xbd8c5e4d3cd28d74U, 0x3d0c5e4d3c34793fU, 0xbdc383593ca06bc6U,
  0xbe075aef3dd790d2U, 0x3db97c9d3da7f0d3U, 0x3aa06bc63df32358U, 0x3daa72823d528d74U,
  0xbdda1281bc34793fU, 0xbdcd8a16be0edffcU, 0x3cfaa865bd0c5e4dU, 0xbd9161ab3dbe7ffbU,
  0x3de91c9c3d397c9dU, 0x3dc886b8bd7fabc4U, 0x3cf0a1a93db1f790U, 0xbdd790d200000000U,
  0xbd1161abbb70a1a9U, 0x3c34793f3c70a1a9U, 0xbd875aef3d4886b8U, 0x3db97c9d3c0c5e4dU,
  0x3d528d743d7aa865U, 0xbdc383593df32358U, 0xbd206bc6bda06bc6U, 0xbd4886b8bc0c5e4dU,
  0x3db4793f3d6b9e4bU, 0xbc96650a3d75a507U, 0x3daa72823d9dea17U, 0x3d397c9d3ba06bc6U,
  0x3cf0a1a9bdeb9e4bU, 0x3d75a5073cd28d74U, 0x3e025791bdc101aaU, 0x3c4886b8bdb1f790U,
  0xbd8edffcbda7f0d3U, 0x3c96650abe089bc7U, 0x3dd28d743d93e35bU, 0xbc5c94303d8c5e4dU,
  0x3cb4793fbe0b1d76U, 0x3e089bc7bda56f24U, 0x3cbe7ffb3d825791U, 0x3d75a5073de4193eU,
  0xbdacbbe3bd036007U, 0xbdff739bbdc03269U, 0xbdfd04cb3d256f71U, 0x3ddd6431bd85ced8U,
  0xbd8360073dcc5c7cU, 0x3dacbbe33df82729U, 0x3d2a4d123d256f71U, 0x3cf349883cb8e5f7U,
  0xbe16d68d3b1bb42eU, 0xbd5af5613d083da8U, 0xbddfd3023d9e22ffU, 0x3e1a7cc6U,
  0xbd80f1363dee6be6U, 0x3daa4d123e02289eU, 0x3df5b8593d782729U, 0xbde71f743cdfd302U,
  0x3d2a4d12bd083da8U, 0x3dbdc398bd9bb42eU, 0xbcd617bf3d5617bfU, 0xbd883da83b1bb42eU,
  0x3dc2a13abdff739bU, 0xbd9e22ffbe036007U, 0xbcaf2ab4bd883da8U, 0x3db67726bd036007U,
  0xbcfd04cbbd16d68dU, 0xbd083da8bdaa4d12U, 0xbdf5b859bdf82729U, 0x3da300a0bd99455dU,
  0x3d8f8a1a3c698e45U, 0xbde98e45bdff739bU, 0xbdbdc398bdf0dab7U, 0xbdd13a1e3b1bb42eU,
  0x3bc2a13abd3dc398U, 0x3c698e453cc2a13aU, 0x3bc2a13abd083da8U, 0x3d8d1b4abc42a13aU,
  0x3c91f8eb3c698e45U, 0xbd883da83c083da8U, 0x3d8aac793d256f71U, 0xbd91f8ebbd85ced8U,
  0x3d5fd9363dc09d23U, 0xbdbb68753d650de4U, 0x3d5fd936be08a6d5U, 0x3d16f7b3be16f7b3U,
  0x3d0759aabd8c8e57U, 0x3d409d23bcdaa488U, 0x3d3b68753dc86c27U, 0xbdecdce9bdea4292U,
  0x3d503b2c3df4abeeU, 0xbb2695bdbdc09d23U, 0xbe09f401bd9ec6b8U, 0x3d2bca6bbd89f401U,
  0x3c503b2c3db39970U, 0x3cd03b2c3e145d5cU, 0xbdd03b2c3e131031U, 0xbda930143e254892U,
  0xbda3fb663dd80a31U, 0x3d16f7b3bb79e09cU, 0x3bf9e09cbc650de4U, 0xbdf4abee3d650de4U,
  0xbd2bca6b3d945d5cU, 0x3d409d233b2695bdU, 0x3e15aa883df74645U, 0x3d89f401bcc5d1d0U,
  0x3dd56fdabcbb6875U, 0x3de50de4bcbb6875U, 0x3dff15493d89f401U, 0xbcef77403d0759aaU,
  0xbc91c3053d3633c7U, 0x3db39970bdbb6875U, 0x3db633c73c11c305U, 0x3d11c3053db8ce1eU,
  0xbd1c2c613def7740U, 0x3d89f4013db0ff19U, 0xbd96f7b3U, 0xbd30ff19bc91c305U,
  0xbd7f15493d409d23U, 0xbd89f4013da695bdU, 0xbdea4292be0759aaU, 0xbd21610fbdb633c7U,
  0xbde0e9b33d20fd83U, 0xbcbd667cbd7af498U, 0x3e0baec8bd823675U, 0x3dde8b9e3df89683U,
  0xbcb3ee29bdaa75d6U, 0x3de0e9b3bdd77160U, 0x3dde8b9e3d3d667cU, 0x3d55134c3d12c906U,
  0x3d505722be05c394U, 0x3dcb9af83d6cc01bU, 0xbc04948a3c76386eU, 0x3db190143cf6386eU,
  0xbd20fd83bd25b9acU, 0xbd5e8b9ebd9e9f6eU, 0xbd84948a3dcdf90dU, 0xbd6cc01b3de347c8U,
  0xbdb3ee29bd7af498U, 0xbe0e0cdd3c6347c8U, 0x3e1656263d2f3200U, 0x3d823675bd59cf75U,
  0xbe0365803d20fd83U, 0xbce347c8bd59cf75U, 0x3cffb0c1bcd05722U, 0x3de5a5ddbd2a75d6U,
  0x3d2a75d6bd4222a6U, 0xbd717c44bd0950b4U, 0xbdc222a63d84948aU, 0xbdb8aa52bdaf3200U,
  0xbd59cf753d4222a6U, 0xbdb3ee29bc978530U, 0xbbbd667cbdbd667cU, 0x3d7fb0c1be023675U,
  0xbdb3ee293df3da59U, 0x3b6347c8bc3d667cU, 0xbda35b98bd0950b4U, 0x3c5057223d55134cU,
  0xbda817c1bd4b9af8U, 0x3d9e9f6e3c6347c8U, 0x3dea6206bd7fb0c1U, 0xbc8e0cddbd4b9af8U,
  0xbd774bb0bcc9dfbfU, 0x3dcc65bebcd3f7bcU, 0xbd35afc63d49dfbfU, 0xbda911ca3d774bb0U,
  0x3ba17fccbca17fccU, 0x3d4eebbd3e0986d4U, 0xbde31bb73d1c73ceU, 0x3d80b1d7bcfc57afU,
  0x3d631bb73d85bdd5U, 0xbd4eebbd3d6827b5U, 0x3e05bdd53d5903baU, 0x3e0c0cd3bc723fb2U,
  0xbd6d33b43d8d4fd2U, 0xbd9767cf3d94e1d0U, 0xbd30a3c73e0700d5U, 0x3e0337d6bdb835c5U,
  0x3d49dfbf3ba17fccU, 0x3dbd41c33cde0fb8U, 0x3c49dfbfbcfc57afU, 0x3dab97c93d9c73ceU,
  0xbc723fb2bdb0a3c7U, 0x3d5e0fb83da17fccU, 0x3ded33b4bd1767cfU, 0xbdc9dfbfbdbabbc4U,
  0x3db0a3c73da17fccU, 0x3c8337d6bdceebbdU, 0xbe0986d4bb217fccU, 0x3db329c6bd217fccU,
  0x3d3fc7c2bda405cbU, 0x3c0d4fd23dfeddaeU, 0x3b723fb23bf23fb2U, 0x3dd903ba3b217fccU,
  0xbc49dfbfbd8ac9d3U, 0xbd35afc63cab97c9U, 0x3d1767cfbe047ad5U, 0xbdfeddaebe203cccU,
  0xbc723fb23da911caU, 0x3d0d4fd23d0337d6U, 0x3d7c57afbda911caU, 0x3e01f4d6bbf23fb2U,
  0xbe2a74043c56be82U, 0x3dfc530c3d9e5fb3U, 0xbcec37f53ccc01c8U, 0xbdb3d9263b80d8b4U,
  0x3dfc530c3e13a2f9U, 0x3d3129f8bd76f4afU, 0x3d5c1cdfbde6d998U, 0xbd990156bd2bcb9bU,
  0xbda66d3e3d516025U, 0xbdd40f53bca10ee1U, 0xbdd96db03d76f4afU, 0x3e210ee13dabcb9bU,
  0x3dfc530cbd165228U, 0xbd56be823dd6be82U, 0xbc6c37f5bbd6be82U, 0x3d8387e3bd8b956eU,
  0x3da66d3ebda10ee1U, 0x3d80d8b43d8b956eU, 0xbdbbe6b2bdae7ac9U, 0x3d66d9983d863711U,
  0xbda66d3ebd66d998U, 0x3db129f83e291c6dU, 0xbcb68855bd7c530cU, 0xbd617b3bbbabcb9bU,
  0x3e08e640bd7c530cU, 0xbd210ee1bc6c37f5U, 0x3d2bcb9b3d93a2f9U, 0xbdf9a3dd3da10ee1U,
  0x3e04df7a3d516025U, 0xbd4c01c83ddc1cdfU, 0x3dd96db0bdabcb9bU, 0x3df6f4af3c965228U,
  0x3cc1450e3d90f3cbU, 0xbc56be823d00d8b4U, 0xbc1652283d5c1cdfU, 0x3b80d8b43dabcb9bU,
  0xbd863711bd063711U, 0xbdabcb9b3da66d3eU, 0xbdbbe6b23cabcb9bU, 0xbddecc0dbc8b956eU,
  0x3d7609d53cbece28U, 0x3ce6f98f3d850fc4U, 0xbdebfefc3cb4c34eU, 0x3e1f6c403dee81b2U,
  0x3d34c34ebdee81b2U, 0x3ddf716cbcfb0f42U, 0x3d07927bbdd56692U, 0xbdafbde2bda5b308U,
  0xbda5b3083de97c45U, 0x3db74605be050fc4U, 0x3dc150de3c5ceeb5U, 0xbc48d902be192578U,
  0x3cc8d9023d34c34eU, 0xbdfb0f423d1ba82eU, 0xbd8f1a9e3dd7e948U, 0xbdbece28bdfb0f42U,
  0x3cf104683d34c34eU, 0x3d919d54bce6f98fU, 0xbd34c34ebc5ceeb5U, 0xbdc3d3953da0ad9bU,
  0x3d828d0e3e0f1a9eU, 0x3b710468bd0c97e8U, 0xbd20ad9bbc96a2c1U, 0xbc96a2c1bd1ba82eU,
  0x3c96a2c13de1f422U, 0xbd20ad9bbdb24098U, 0x3d7b0f42bdf10468U, 0x3dd56692bd8f1a9eU,
  0xbda0ad9b3d028d0eU, 0x3ddceeb5bd16a2c1U, 0xbc96a2c1bdbc4b72U, 0x3ca0ad9b3d48d902U,
  0x3cdceeb53dc8d902U, 0x3d028d0ebe050fc4U, 0x3d39c8bbbdad3b2bU, 0xbcc8d902bca0ad9bU,
  0x3d028d0e3da835beU, 0xbd16a2c1bcfb0f42U, 0xbe1f6c403d992578U, 0xbd0c97e83db74605U,
  0xbe0d89a03cdad91aU, 0x3da8e4c43d937c0cU, 0xbd3007abbd7c26a9U, 0x3df041d2bd879734U,
  0x3d47d15bbd183dfcU, 0x3e14ac88bd7764baU, 0x3d3007ab3ddf9b0aU, 0xbdada6b3bc7764baU,
  0xbc2b45bcbde6bdf2U, 0xbd3e4d7b3c85363cU, 0x3d89f82c3cd1553aU, 0x3e05363cbdbbec83U,
  0xbcb4c99bbc51553aU, 0x3dc0ae73bdd3b632U, 0xbd5f9b0a3de6bdf2U, 0xbdd1553a3d80744dU,
  0x3deb7fe23d89f82cU, 0x3d8eba1c3dd1553aU, 0xbc2b45bc3be45cfaU, 0xbd5ad91abe0b28a8U,
  0x3cc7d15b3de45cfaU, 0x3d2b45bcbc85363cU, 0xbd95dd04bd983dfcU, 0xbdb98b8bbdc0ae73U,
  0xbd9cffec3de1fc02U, 0xbe0666b83d4c934bU, 0xbdb4c99b3cb4c99bU, 0xbde1fc023de6bdf2U,
  0x3da1c1dc3d0eba1cU, 0xbdab45bcbbbe4d7bU, 0x3c983dfcbc51553aU, 0xbd09f82c3db98b8bU,
  0x3dcef443bdc57063U, 0x3c05363c3d6de0daU, 0xbc85363c3da1c1dcU, 0xbd09f82c3cc7d15bU,
  0xbd983dfcbe170d80U, 0xbc645cfa3ddd3a12U, 0xbd183dfc3b983dfcU, 0xbcbe4d7b3b983dfcU,
  0xbc23ea023dd9b2cbU, 0xbde910bbbd800ed2U, 0x3e03e64ebd0a4d72U, 0x3dd203d3bdbaf6eaU,
  0x3c4ce482bd000ed2U, 0x3c6161c3bd91fc6aU, 0x3db347f2be0675f6U, 0x3dc2a5e23da90952U,
  0x3d9ecab23deba063U, 0x3d6ba063bbf5df03U, 0x3c6161c3bcd72323U, 0xbda679aabd7afe53U,
  0x3d3867423da3ea02U, 0x3cc2a5e23d99ab62U, 0x3d99ab62be07bdcaU, 0x3d19ab623ccce482U,
  0x3da15a5abdae28a2U, 0xbdb0b84abd852e22U, 0xbd852e223d6ba063U, 0xbd6161c33d668113U,
  0x3da3ea02bd9c3b0aU, 0xbcf5df033c4ce482U, 0xbdb5d79a3db347f2U, 0x3d75df03be0b9546U,
  0x3d99ab62be07bdcaU, 0xbde68113bd1ecab2U, 0xbdfafe53bd5203d3U, 0x3da679aa3b75df03U,
  0xbb75df033c386742U, 0x3c99ab62bd000ed2U, 0x3ccce4823db86742U, 0xbdd9b2cbbd668113U,
  0xbdb347f2be22a22eU, 0xbde681133dcce482U, 0x3ca3ea02bd948c12U, 0x3d70bfb33c386742U,
  0xbdb347f23c6161c3U, 0x3dca54dabdfafe53U, 0xbd6161c33d6ba063U, 0xbd852e22bcf5df03U,
  0x3d5cd7313d7ba7d2U, 0xbc8588113d9781c5U, 0xbdb8e3c9U, 0xbce1f9f63de48b59U,
  0xbc38e3c93d1f35edU, 0x3dd000433de48b59U, 0xbd6c3f813d2458b3U, 0xbdc097f2bd4d6ee0U,
  0xbda1c7503db65267U, 0xbe2310023c4d6ee0U, 0xbd82f6af3dc097f2U, 0x3d0588113dae9e3eU,
  0xbda458b3be11164eU, 0xbde48b593d9a1328U, 0x3d57b46b3b2458b3U, 0x3d1f35ed3d1a1328U,
  0xbd925effbc858811U, 0x3aa458b33cae9e3eU, 0xbd8588113d858811U, 0xbe00654cbd8aaad7U,
  0x3df9166fbd33c104U, 0x3b2458b33d14f062U, 0xbc4d6ee0bd6c3f81U, 0x3c9a1328bdb8e3c9U,
  0x3dd52308be058811U, 0x3dda45ce3c38e3c9U, 0xbdc32955bd671cbcU, 0x3dac0cdbbd9a1328U,
  0x3db652673c858811U, 0x3c9a13283d671cbcU, 0x3db3c104be0e84ebU, 0xbce1f9f6bc2458b3U,
  0xbdac0cdb3c0fcd9dU, 0x3dd000433d2458b3U, 0xbe125eff3c9a1328U, 0xbd0aaad73c9a1328U,
  0x3e0962263d5291a5U, 0x3d33c1043e043f60U, 0xbcc329553d2458b3U, 0xbd82f6afbc76850cU,
  0x3ddc6ae53e07ec96U, 0x3da689a83d2b6f96U, 0xbe0440233d2b6f96U, 0x3ded8fa83d305584U,
  0x3dab6f96bdade28dU, 0xbde3c3cbbdf75b84U, 0xbd92f1ee3dd29f09U, 0x3dbf074f3d9a4ad4U,
  0xbd907ef73dd51200U, 0x3c6b1cb0bde8a9b9U, 0x3ded8fa8bd9a4ad4U, 0x3cf4e88d3cba2161U,
  0xbdf9ce7c3d74e88dU, 0x3d892612bdf9ce7cU, 0xbded8fa83d21a3b9U, 0xba9cbdcb3da416b1U,
  0x3ded8fa8bdade28dU, 0x3da1a3b93d17d7ddU, 0x3d6150d43d0e0c00U, 0x3a9cbdcbbb6b1cb0U,
  0x3deb1cb0be06b31aU, 0x3c9cbdcbbe1b844fU, 0xbdc17a47bd9a4ad4U, 0x3ddeddddbbeb1cb0U,
  0xbb1cbdcb3dc17a47U, 0xbcc3ed3e3dcb4623U, 0x3ce150d4bdf27596U, 0x3dc17a47bccdb91aU,
  0xbd3a2161bda689a8U, 0x3d97d7dd3de8a9b9U, 0x3b9cbdcb3cfeb46aU, 0xbda416b1bc305584U,
  0xbdbc9458bdf75b84U, 0x3db7ae6abc1cbdcbU, 0x3da1a3b93e0e0c00U, 0x3cba21613d43ed3eU,
  0x3deb1cb0bdcb4623U, 0xbde8a9b93c6b1cb0U, 0xbc92f1eebe0b9909U, 0xbca689a83dc66035U,
  0x3d1708eb3da531c1U, 0x3dbccb263da78de5U, 0x3da2d59d3c0427ceU, 0xbd9e1d56bd1250a4U,
  0xbdc3df913c3ccb26U, 0x3dc897d8be15dad9U, 0xbd1250a4bdc63bb4U, 0x3d54648a3d08e015U,
  0x3df0b6373c1708ebU, 0x3d7a26c53da78de5U, 0xbc1708eb3d6bfdefU, 0xbcebfdefbdc897d8U,
  0xbdc1836d3dbccb26U, 0x3dd4648a3b1708ebU, 0x3db0fe7300000000U, 0xbd7a26c5bc8d985cU,
  0x3df56e7ebd9708ebU, 0x3b9708ebbcd91cd2U, 0xbd463bb4be0c6a4aU, 0xbd1250a43d54648aU,
  0xbdd4648abda9ea08U, 0x3e0b3c39bd81cbaaU, 0x3ccfac433d9e1d56U, 0xbcebfdef3d70b637U,
  0xbd7a26c53dc1836dU, 0xbdf0b637be112292U, 0x3dc3df913d9708ebU, 0x3dcd501f3b1708ebU,
  0x3dd91cd2bda78de5U, 0xbd1bc1323dba6f02U, 0x3da2d59d3db35a97U, 0xbd6bfdef3d8d985cU,
  0xbdd4648abd54648aU, 0xbd81cbaabd20797aU, 0xbdf56e7ebdebfdefU, 0x3d9708eb3de745a8U,
  0xbda2d59dbd5dd519U, 0x3cd91cd2bd99650fU, 0xbc4fac43be0ff480U, 0x3d8ff4803cc63bb4U,
  0x3d6a09663d9f251cU, 0x3d7cc2783dbd91daU, 0xbdd9a776bd95c893U, 0xbd368c733a95c893U,
  0x3d655b213df5bd11U, 0x3ce0acdcbdcb9ca8U, 0xbde55b21bd8c6c0aU, 0x3d4497413b60acdcU,
  0xbc60acdcbd8a14e8U, 0xbdc945863de7b243U, 0x3c15c8933dd2a20fU, 0xbdb1de2fbc7365efU,
  0xbe01e3efbd911a4eU, 0x3d830f81bd4df3caU, 0x3cfcc2783e149d02U, 0x3dd04aec3da62a83U,
  0x3d60acdc3e030f81U, 0x3c030f813da3d361U, 0x3d9371713d7365efU, 0xbda62a833c2881a5U,
  0xbdfa6b56bd7365efU, 0x3be0acdc3d368c73U, 0x3d6a0966bd1f251cU, 0x3d15c8933dc6ee63U,
  0x3d8c6c0abcc49741U, 0x3cf365efbdfa6b56U, 0xbd8ec32cbdbfe8fcU, 0x3dea09663c2881a5U,
  0xbd781433bccdf3caU, 0x3d6a09663d23d361U, 0x3dcdf3cabdbb3ab8U, 0xbdcb9ca83daad8c8U,
  0x3dd9a7763e149d02U, 0x3ddbfe983b95c893U, 0x3de55b213d111a4eU, 0xbdcdf3cabdf5bd11U,
  0xbe0566a3bcbb3ab8U, 0xbd31de2f3d0c6c0aU, 0x3dd2a20f3c8c6c0aU, 0x3db68c73bdea0966U,
  0x3d5960843cbbbc15U, 0xbdde5141bca7f920U, 0x3db1da9b3d8ccd10U, 0x3d8ccd10bdf704f3U,
  0x3da30863bda7f920U, 0x3da09005bc1e17a6U, 0xbd94362c3d40acd2U, 0xbe1a63183c596084U,
  0xbe02eb95bb9e17a6U, 0x3dcd06abbdace9deU, 0x3da09005be0b90e1U, 0x3ca7f9203dace9deU,
  0x3d6341ffbccf7f0aU, 0x3e1cdb773d6d2379U, 0xbc1e17a6bda09005U, 0xbdc815eebcc59d90U,
  0x3a9e17a63d8563f4U, 0x3ccf7f0abcf704f3U, 0xbcc59d90bb6d2379U, 0x3ca7f9203def9bd8U,
  0xbcf704f33b9e17a6U, 0xbcbbbc153c8a54b1U, 0x3d2ce9de3d6341ffU, 0xbc6d2379be1cdb77U,
  0x3da7f9203d9b9f47U, 0x3d4f7f0a3c807337U, 0x3dd46fc7bd721436U, 0xbd1e17a6bdb6cb58U,
  0xbdca8e4dbd596084U, 0x3c807337bdf21436U, 0xbe16ae8abca7f920U, 0xbdf48c95bdf97d52U,
  0xbda580c2bc31da9bU, 0xbc596084bd27f920U, 0x3e0563f4be007337U, 0xbd0a54b13dfe6e0fU,
  0xbd8073373c94362cU, 0xbdc815ee3cbbbc15U, 0xbc459d903d5e5141U, 0x3dbbbc153ce341ffU,
  0xbe10eaf63d045daaU, 0x3d320260bda208baU, 0xbbb692d93d568625U, 0xbc88ee23bd08ee23U,
  0xbdb20260bd9fc07eU, 0xbd82156ebd86a5e6U, 0x3a920f143d4d6534U, 0x3bdb169e3d0d7e9bU,
  0xbde4378fbdd1f5adU, 0xbdfb09eabddb169eU, 0x3c6d5880bd1b3005U, 0x3d64378f3d98e7c9U,
  0x3deb10443d767972U, 0xbbb692d9bde8c808U, 0x3dfd52273cc8d4bcU, 0x3db692d93defa0bdU,
  0x3e0c5a7dbdf67972U, 0x3bff9a633de4378fU, 0x3de4378f3d320260U, 0xbbb692d9bc120f14U,
  0x3ded5880bd920f14U, 0xbdcb1cf83dfb09eaU, 0x3cff9a63bb120f14U, 0xbdd1f5adbdc8d4bcU,
  0xbced5880U, 0x3d68c808bde4378fU, 0x3e08ee233c920f14U, 0x3dcb1cf8bc120f14U,
  0xbdbfb3ca3cff9a63U, 0x3d2450f63dab29abU, 0x3deb1044bc2450f6U, 0xbd86a5e6bd945750U,
  0x3d8fc6d83d98e7c9U, 0x3d0d7e9b3d5fa717U, 0xbd9b30053deb1044U, 0xbd9fc07ebdd43de9U,
  0x3c48d4bc3ddd5edaU, 0x3da450f6bdf1e8f9U, 0xbd444443bcad71e8U, 0xbc48d4bc3c920f14U,
  0xbdd20436bd182f93U, 0xbd982f933b921931U, 0xbe4146a8bde13c2bU, 0x3ce7528d3dc2cc41U,
  0xbce7528d3d921931U, 0x3ac2cc413cffac15U, 0xbb42cc413daa72b9U, 0x3d0c02cf3db3944cU,
  0x3e245c573db3944cU, 0xbcf37f51U, 0x3d9524623d7fac15U, 0xbcdb25c93db9aaaeU,
  0xbd1219313c921931U, 0x3dd50f673dc2cc41U, 0xbdb0891bU, 0xbdd50f67bdd20436U,
  0x3df37f51be05ec6dU, 0xbde13c2bbe0466d4U, 0x3ddb25c93d2a72b9U, 0x3d9b3ac43c2a72b9U,
  0xbdb9aaae3dad7deaU, 0x3d613c2bbdcbedd4U, 0x3caa72b93cdb25c9U, 0x3dc2cc413c9e45f5U,
  0xbd369f7dbdc8e2a3U, 0x3d05ec6dbcf37f51U, 0x3d8f0e00bd982f93U, 0xbdaa72b9bb42cc41U,
  0xbd67528d3d05ec6dU, 0x3db69f7d3dfca0e4U, 0xbd30891bbde13c2bU, 0x3db9aaae3dd50f67U,
  0x3e16a9fabdaa72b9U, 0x3d2a72b9bd737f51U, 0xbdb69f7dbcc2cc41U, 0x3e02e13cbd88f79eU,
  0x3d8c02cfbdfca0e4U, 0xbdf995b33b42cc41U, 0x3dcbedd43d85ec6dU, 0xbdad7dea3c9e45f5U,
  0xbd49f3d6bd6ab398U, 0x3e2d4c0cbd653e4dU, 0x3dd79911bdc1c3e5U, 0xbd1e497e3dabeebaU,
  0x3d1e497ebdc47e8bU, 0xbc7028e3be09d1a5U, 0xbd5fc9023d4f6921U, 0x3e1776e0bd7b1379U,
  0x3daea95fbd7b1379U, 0xbd98d433bd087452U, 0xbd653e4dbd341eaaU, 0x3cb993f53d85b9adU,
  0x3d7028e3bd804462U, 0x3d5fc902bded6e3dU, 0xbe293414bdfdce1eU, 0xbd0874523c7028e3U,
  0xbe05b9adbc82ff07U, 0xbd98d4333b2ea95fU, 0xbda934143ca3bec9U, 0xbc2ea95fbc447e8bU,
  0x3e09d1a53de283a7U, 0x3d2ea95f3da93414U, 0x3cfb13793d935ee8U, 0xbbda53b7bdabeebaU,
  0xbbda53b73d82ff07U, 0xbd293414bd887452U, 0x3cc47e8b3df2e388U, 0x3d3993f53cb993f5U,
  0xbdb164043d5fc902U, 0xbd935ee83d135ee8U, 0x3e0874523d653e4dU, 0x3dfb1379bd7b1379U,
  0x3da93414bdcf6921U, 0xbdbc4e9a3c447e8bU, 0xbd887452bdcf6921U, 0xbc447e8bbd935ee8U,
  0xbdc47e8b3c2ea95fU, 0xbddfc902bb2ea95fU, 0xbd135ee83d3f0940U, 0x3c7028e33dabeebaU,
  0xbd44018cbdd2b4ddU, 0x3d269aebbccdce6dU, 0xbd9cce0a3d8ba781U, 0x3d269aebbd269aebU,
  0x3d17e79a3dd041a5U, 0xbd844dd8bd79e860U, 0x3df9e8603c3067cbU, 0x3c1cce0abcd79b4eU,
  0x3dcb5b353dab815bU, 0xbdeb350f3dd041a5U, 0x3dcdce6d3e143ac5U, 0x3cfeced03e0a6de5U,
  0xba9cce0a3d044dd8U, 0xbbc4018cbd2b815bU, 0xbe0ba781bb9cce0aU, 0xbe0ba7813df77528U,
  0xbdeda8473dadf493U, 0xbdb7c174bdd52816U, 0xbdadf4933dfeced0U, 0x3d893449bd3f1b1cU,
  0xbda69aebbc44018cU, 0x3b9cce0a3d79e860U, 0x3d8934493df28eb7U, 0x3de1682e3ceb350fU,
  0x3df01b7fbc6b350fU, 0x3df775283c44018cU, 0xbdf01b7fbd908df1U, 0x3c893449bd2b815bU,
  0x3db067cbbdc674c5U, 0x3dd528163d093449U, 0xbd61682ebdeb350fU, 0x3cfeced03c579b4eU,
  0xbdda0e863e1b946eU, 0xbc579b4e3d97e79aU, 0x3cd79b4ebd9a5ad2U, 0xbccdce6d3dd79b4eU,
  0xbdb067cb3d52b4ddU, 0xbd6b350f3d701b7fU, 0x3b9cce0a3d1cce0aU, 0x3d0934493de1682eU,
  0x3dc657f43bf1066cU, 0x3da5b46b3caab9e2U, 0x3de1f606bd07939dU, 0xbdb242163d1ba97bU,
  0xbd4de027bd3ecfc1U, 0x3d25b46bbd8510e1U, 0xbdcb5d6c3b20aef3U, 0x3dc657f4bdcb5d6cU,
  0xbdb9ca493d52e59fU, 0x3e1f6d95bd2ab9e2U, 0xbc20aef3be03cf83U, 0xbdbecfc1be0f1bd0U,
  0xbdc3d5383d48dab0U, 0xbe0a1659bdbc4d05U, 0xbc828e253d942148U, 0xbc828e25bddcf08eU,
  0xbdf88ea03df88ea0U, 0x3daab9e2bd9ba97bU, 0xbd828e25bdd062e3U, 0x3d760be43d66fb7dU,
  0xbd8510e13c96a404U, 0x3d71066c3e03cf83U, 0x3cbecfc13ba0aef3U, 0x3bf1066cbd61f606U,
  0xbd6c00f5bdc3d538U, 0x3d119e8cbdfb115cU, 0xbd8a1659bbc8dab0U, 0xbd9e2c373de478c2U,
  0xbcaab9e23de1f606U, 0xbcaab9e2bdec00f5U, 0x3d0c9915bc20aef3U, 0x3da331afbdcb5d6cU,
  0xbdb242163ca0aef3U, 0xbd2ab9e2be06523fU, 0x3d028e25bc34c4d1U, 0xbd9421483d8510e1U,
  0x3d96a404bd52e59fU, 0xbda331afbde1f606U, 0x3dd2e59f3dcb5d6cU, 0x3c71066cbcd2e59fU,
  0x3d908553bcdb45dfU, 0x3e17fefabc1f78a2U, 0x3d868dc93c5b45dfU, 0x3e17fefabce53d69U,
  0xbde53d69bcf92c7dU, 0x3ce53d693d1f78a2U, 0xbdbae15ebdbd5f40U, 0xbd5b45dfbe1a7cddU,
  0x3cdb45dfbdbae15eU, 0xbdc25b05bd068dc9U, 0xbc8b898ebddb45dfU, 0x3d908553bd792c7dU,
  0x3cbd5f40bda9702cU, 0x3d868dc9bd38637bU, 0xbde2bf86bc0b898eU, 0xbd108553bd425b05U,
  0xbe0cc87f3d38637bU, 0x3d9085533de7bb4bU, 0xbde53d693ce53d69U, 0x3dc756ca3d3d5f40U,
  0xbcf92c7d3d868dc9U, 0x3d8192043d158118U, 0xbdd3cc373e0a4a9cU, 0xbd890bab3dbd5f40U,
  0xbd3d5f4000000000U, 0xbd840fe6bdc756caU, 0x3ce53d69bd840fe6U, 0xbd9cfabf3cef34f3U,
  0x3dbd5f403da1f685U, 0xbdabee0fbc958118U, 0xbda47467bdb367b6U, 0x3d2e6bf13db0e9d4U,
  0xbdef34f3bdfbaa60U, 0xbd3367b6bd6a392eU, 0xbc4756ca3e040fe6U, 0xbd868dc93e1e39b1U,
  0x3d8192043b9f78a2U, 0xbe02d0f5bd890babU, 0x3d29702c3c4756caU, 0xbd792c7dbd6041a4U,
  0x3de8aa293d8a1094U, 0x3c7572cebd1e84d0U, 0xbdcf18debe0b57d8U, 0xbd38161b3e0de65fU,
  0x3c9967c13dd952fcU, 0xbdd435edbd7055c0U, 0xbd7a8fdd3d96d93aU, 0xbda3a1df3d3d332aU,
  0x3bf572ce00000000U, 0xbd7facec3ba3a1dfU, 0x3da8beeebc8f2da3U, 0xbd32f90cbd91bc2bU,
  0xbe04f385bdbfc1b1U, 0xbdbfc1b1bdb8161bU, 0x3c7572cebc4c8a57U, 0x3e07820dbd6b38b1U,
  0x3d8264febd28beeeU, 0x3e225a9bbd8f2da3U, 0x3cc25039bb7572ceU, 0xbc38161bbd87820dU,
  0x3d7a8fdd3dcf18deU, 0x3aa3a1dfbce0fe93U, 0x3dc9fbcfbd04f385U, 0x3d7572cebd60fe93U,
  0x3d28beeebcc25039U, 0x3d2ddbfd3da63066U, 0xbe1aaf053ce0fe93U, 0x3d4250393dffacecU,
  0x3c0f2da33d7572ceU, 0x3dd952fcbd8f2da3U, 0x3d1e84d03d9e84d0U, 0xbdd1a766bdcf18deU,
  0xbceb38b13caddbfdU, 0xbd1e84d03d0f2da3U, 0x3d3d332a3caddbfdU, 0xbdab4d75be0264feU,
  0xbc7572cebdb2f90cU, 0xbc9967c13b23a1dfU, 0xbdab4d75bd144ab2U, 0xbceb38b1bd7a8fddU,
  0x3e06dd053dc5a503U, 0x3e0a59e93dc351c1U, 0xbd1e1d9c3dc0fe7fU, 0xbd55ebd3be05b364U,
  0x3a94d093bce885e6U, 0x3d276aa5bdc5a503U, 0xbc023681bdc7f846U, 0x3d823681bd30b7afU,
  0xbd927d51bb94d093U, 0x3d823681bd3eab3cU, 0x3d4351c13da2c421U, 0x3c14d093be023681U,
  0x3da76aa5bd2c112aU, 0x3dd5ebd33ded2c6aU, 0x3dd39891bdca4b88U, 0x3c4c9ecabdcc9ecaU,
  0x3cd5ebd33d2c112aU, 0x3dfd733abc823681U, 0xbe0f006dbd102a0eU, 0xbd30b7af3e093048U,
  0xbddce59a3da51763U, 0xbdca4b88bd3eab3cU, 0x3cb0b7afbda070deU, 0xbde18c1f3ddce59aU,
  0x3c94d0933d023681U, 0xbdb7b175bdf1d2efU, 0x3c8b838abdf1d2efU, 0xbdd1454fbd7b1ff8U,
  0xbd4c9ecabd8b838aU, 0x3dead928be102a0eU, 0x3ded2c6aU, 0xbd6d2c6abe13a6f2U,
  0x3dc7f846bdc0fe7fU, 0x3da2c421bdd39891U, 0xbd51454fbdca4b88U, 0x3dd83f16bdc351c1U,
  0x3d22c4213d3eab3cU, 0xbdb7b175U, 0x3cb0b7afbd767973U, 0x3da9bde83de3df61U,
  0xbd4a5b9c3dc3217bU, 0xbd9a2d6bbe034aadU, 0xbd821652bc2d7318U, 0xbe081c183d97c4b5U,
  0xbc2d73183a9a2d6bU, 0x3dd195bd3dd66729U, 0x3d8950733d3be75aU, 0xbd4f2d08be16905aU,
  0x3c06e7bebdccc452U, 0x3d1efed6bd955c00U, 0xbdd8cfdebdd195bdU, 0x3cad7318bd8e21dfU,
  0x3cca5b9c3d86e7beU, 0xbd458a31bdee7e42U, 0x3dc0b8c63d458a31U, 0x3d9a2d6bbe18f910U,
  0x3de74420bde009ffU, 0xbdca5b9cbcd3fe73U, 0xbd2d73183b1a2d6bU, 0x3e0216523d324484U,
  0xbd6c158c3cd3fe73U, 0xbd40b8c63d2d7318U, 0x3c86e7be3dc7f2e7U, 0x3e0950733d821652U,
  0x3d3715efbde4db6bU, 0xbdff5b39bb1a2d6bU, 0x3df821183c53fe73U, 0x3dafdbce3d70e6f7U,
  0x3d70e6f73dc3217bU, 0xbc1a2d6bbd70e6f7U, 0x3d2d7318bdf34fadU, 0xbddda14abd75b863U,
  0x3de74420bdf82118U, 0xbdfa89ce3e047f08U, 0x3dfa89ce3cd3fe73U, 0x3e12f34abdec158cU,
  0xbd97c4b5bd9c9621U, 0x3e095073bdc3217bU, 0xbda1678c3cfa89ceU, 0xbdca5b9c3db715efU,
  0x3dc537debd9bf0a4U, 0xbd2e49303d2086c7U, 0x3dbe56aa3d73153cU, 0xbd3c0b983d0501f5U,
  0x3dfc41823e006bd2U, 0xbd6e7f193de307c1U, 0xbdbc0b983c006bd2U, 0x3de307c1bc251ceaU,
  0x3df9f6703c899818U, 0xbcae4930bb92c45eU, 0x3dae49303d7c4182U, 0xbd32df53be02b6e4U,
  0x3d0501f53d377576U, 0xbdf7ab5fbd60bcb0U, 0x3de9e8f6bcdc268dU, 0xbdd0af36bd874d07U,
  0xbd52fa473de307c1U, 0x3cc9ce013cee7f19U, 0x3d377576ba92c45eU, 0xbcb775763d77ab5fU,
  0x3cb775763d92c45eU, 0xbd3c0b98bd99a592U, 0x3df0ca2abdb09441U, 0x3db2df533d7c4182U,
  0x3e10794d3d874d07U, 0x3e119ed53dc0a1bbU, 0x3db9c0873c5c268dU, 0x3e0abda1bc251ceaU,
  0xbc5c268d3da9b30dU, 0x3db77576bdcc1913U, 0x3e0501f53d006bd2U, 0xbcb77576be02b6e4U,
  0x3df0ca2a3d9bf0a4U, 0xbd377576bd29b30dU, 0xbc899818bd5c268dU, 0xbd1bf0a43c251ceaU,
  0xbc37757600000000U, 0x3db2df53ba92c45eU, 0xbdd0af36bd377576U, 0x3d32df533d0501f5U,
  0xbcb800193d380019U, 0xbd0f1c853aa38e4fU, 0xbd7039043df03904U, 0x3d99556a3e224732U,
  0x3d9be3a33ddbc73aU, 0x3d2dc734bd2dc734U, 0x3d56aac83d9438f8U, 0x3dde5573bd60e3adU,
  0x3d84e3a0bdb0556dU, 0xbd825567bd32e3a6U, 0xbd60e3adbd755576U, 0xbe062abd3dba8e52U,
  0x3d475570bceb1c92U, 0x3dbfaac53c8f1c85U, 0xbc380019bcf55576U, 0xbdb800193e1fb8f9U,
  0xbd4c71e33d19556aU, 0xbdb80019bd6b1c92U, 0xbd66001fbd91aabeU, 0x3dbfaac5bd8f1c85U,
  0xbdc75570bd60e3adU, 0x3cc238febcff8e5bU, 0x3e180e4dbceb1c92U, 0x3e180e4dbceb1c92U,
  0x3d4238fe3dba8e52U, 0xbd9e71dd3cc238feU, 0x3bcc71e33da8aac1U, 0xbd3d1c8bbe1063a2U,
  0x3d7555763e0c8e4cU, 0xbdb80019bda8aac1U, 0xbd99556abdd93901U, 0x3d238e4fbd5bc73aU,
  0x3e0255673ceb1c92U, 0x3e0771d93d2dc734U, 0x3df555763b755576U, 0x3dedaacb3da10016U,
  0x3d238e4f3d28aac1U, 0xbb7555763aa38e4fU, 0xbc238e4f3dc238feU, 0xbdd939013d19556aU,
  0x3de3c3cabdd98736U, 0xbddc165b3ceb7138U, 0xbd9c1bc43d479d35U, 0x3d91df313d946e55U,
  0x3dca2c5a3e03cbe6U, 0x3d9eaae8be2281a0U, 0x3dffea5e3e051379U, 0x3d8f500cbd28e77cU,
  0x3dc79d35bda8e77cU, 0xbd8f500c3e1eaae8U, 0xbd8f500c3dab76a0U, 0x3c6134a53dfacc15U,
  0x3df5adcbbdc27eebU, 0xbd0a31c2bd851379U, 0xbd51d9c83d75adcbU, 0x3b75adcbU,
  0x3d4cbb7e3c8f500cU, 0x3dbfefc73d7fea5eU, 0x3d7acc153dfd5b39U, 0x3e0cc0e73dbad17dU,
  0x3d75adcb3b23c932U, 0x3cccbb7ebd384258U, 0x3d8a31c23de8e213U, 0xbdbad17dbdd1d9c8U,
  0x3d146e55bcffea5eU, 0xbdab76a03e0a31c2U, 0xbd4cbb7e3d6652eeU, 0xbe0f500c3dbfefc7U,
  0xbddea5803df5adcbU, 0xbd33240f3d6b7138U, 0x3c851379bdb5b333U, 0x3d6134a5be03cbe6U,
  0x3d7fea5e3d1eaae8U, 0x3c4cbb7e3dd6f812U, 0x3c8f500c3d33240fU, 0xbd8f500c3d6134a5U,
  0xbdfd5b39bde8e213U, 0x3d384258bdc79d35U, 0x3d051379bdbfefc7U, 0xbd7fea5ebd384258U,
  0x3d81e6823cfee621U, 0xbddc95eb3ceb4a94U, 0x3de8d723bdb55ed2U, 0xbe1ba2aa3c3077efU,
  0x3c930e9dbce17cceU, 0x3da6aa293d1cdc63U, 0xbcd7af083d2b910cU, 0xbd8940d73c8940d7U,
  0x3d44137cbde8d723U, 0xbc0940d73dba45b6U, 0x3de663b13d909b2bU, 0x3dab910c3c9cdc63U,
  0x3c44137cbc3077efU, 0xbc0940d7bd21c346U, 0x3d26aa293c8940d7U, 0x3d0940d73ddc95ebU,
  0x3ddf095dbd8459f4U, 0x3e16bbc7bd81e682U, 0x3a9cdc633cd7af08U, 0x3b6b4a94bd17f580U,
  0x3b6b4a943db55ed2U, 0x3df78bccbcba45b6U, 0x3b9cdc63bda436b8U, 0xbc8940d73d95820eU,
  0x3d2b910c3dda227aU, 0xbdd7af083dd7af08U, 0x3de3f0403d9f4fd5U, 0x3d95820ebc0940d7U,
  0x3c7ee6213d7ee621U, 0x3ca6aa293dd2c825U, 0x3de3f0403ca6aa29U, 0x3db2eb61bdc8fa5fU,
  0xbde663b13dbf2c99U, 0x3da91d9bbe01e682U, 0xbd21c3463c0940d7U, 0xbe11d4e4bceb4a94U,
  0xbd52c825bd9a68f1U, 0xbe0f61723de8d723U, 0x3de17ccebddc95ebU, 0xbe16bbc73d909b2bU,
  0x3d62216c3d03e8d5U, 0x3bbc7130be10dd6aU, 0x3d79af92bd45dd3fU, 0x3df04383bcd8b55dU,
  0xbe00604fbd412737U, 0x3e1465ef3d412737U, 0x3d66d774bc4f494eU, 0x3d2e4f193c16c0f3U,
  0xbd9465ef3cbc7130U, 0x3b16c0f33ddd6b65U, 0xbd58b55dbc83e8d5U, 0xbdfc0a963dd3ff56U,
  0x3d45dd3f3dca9347U, 0xba96c0f3bd7e659aU, 0xbda4e30abb62216cU, 0x3c4f494ebd0d54e4U,
  0xbd37bb28be0643d8U, 0x3db305213d9dd1feU, 0xbd79af92be0af9e0U, 0x3d8d54e43bbc7130U,
  0x3d74f98bbde6d774U, 0xbdb0aa1dbc74f98bU, 0x3d920aebbe0fafe8U, 0xbe159371bd8af9e0U,
  0x3dccee4abdae4f19U, 0x3d9465efbd412737U, 0xbcf4f98bbd330521U, 0x3dca93473d0d54e4U,
  0x3dd1a452be03e8d5U, 0xbde932783ddfc669U, 0x3df7548fbd9b76fbU, 0xbd818dd13b16c0f3U,
  0xbd3305213c8d54e4U, 0xbd6b8d7cbd1b76fbU, 0x3c03e8d53cbc7130U, 0x3df7548f3ce2216cU,
  0xbdf29e87bdca9347U, 0xbd9465efbd6b8d7cU, 0x3dede87f3d53ff56U, 0x3dc5dd3fbd16c0f3U,
  0xbcd91f82bd15eb17U, 0x3d2041ec3de0e0a2U, 0x3cafc42c3d3f466dU, 0x3e051dfc3dfab9b8U,
  0x3e19cba73d9b1682U, 0x3dcc32f7bd95eb17U, 0xbce37658bdb4ef97U, 0xbc9b1682bbf82402U,
  0xbcc471d7bbf82402U, 0xbd68a1c2bba56d57U, 0xbd9dac37be0e29f7U, 0x3e10bfacbde8a1c2U,
  0xbd013d6cbd72f898U, 0x3da8030cbdc99d42U, 0x3e013d6c3d95eb17U, 0xbddbb538bdc7078dU,
  0xbcd91f82bd2041ecU, 0x3da56d57bbcec8adU, 0x3cafc42c3e22d7a2U, 0x3d256d573cf82402U,
  0xbd3f466dbc256d57U, 0x3dc99d42bdaa98c2U, 0x3e0a4967be03d321U, 0xbe15eb17bcd91f82U,
  0xbb256d57bca56d57U, 0x3c6376583dba1b02U, 0x3d0b9441bd53f417U, 0x3d2fc42cbdba1b02U,
  0x3daa98c2be24227cU, 0xbd2041ecbddbb538U, 0xbd9880cc3dba1b02U, 0xbc6376583d0668d7U,
  0x3d2041ec3d3f466dU, 0xbd0b94413dedcd2dU, 0xbd83d321bc3a1b02U, 0x3bf824023dc471d7U,
  0xbc256d57bd83d321U, 0xbc8668d7bd0668d7U, 0xbde376583b782402U, 0xbc8668d7bcba1b02U,
  0xbdbfc8c3bd0d5090U, 0xbd3abcbebdd904dcU, 0xbd35b0b8bded34f1U, 0x3e162598bdc24ec5U,
  0x3c7240f63de828ecU, 0xbd033885bdb32ab6U, 0xbdbd42c03dcc66d0U, 0xbc49e0cd3c0d5090U,
  0xbd125c953d53f8d7U, 0xbdbabcbe3d49e0cdU, 0xbba180a43e14e297U, 0x3cab98ae3e033885U,
  0x3db32ab6bd8aca8dU, 0x3d99ee9c3c7240f6U, 0xbcde10e23cfc5900U, 0xbdc4d4c8bdb32ab6U,
  0xbc7240f6bd8fd692U, 0x3dc75acabd44d4c8U, 0xbce828ec3cbfc8c3U, 0x3dae1eb1bc7240f6U,
  0x3d5e10e23d2180a4U, 0xbd8aca8d3e00b283U, 0xbc8d509000000000U, 0xbdd67eda3c5e10e2U,
  0x3de31ce73df9d2feU, 0x3d9efaa13cbfc8c3U, 0xbcbfc8c33e203da3U, 0x3deaaeeebd3abcbeU,
  0x3dd904dc3de828ecU, 0xbde828ecbdcc66d0U, 0x3d0d50903d30a4b3U, 0x3db836bbbdd172d5U,
  0xbd4eecd2bd9efaa1U, 0xbd49e0cdbcbfc8c3U, 0xbd1c749fbc2180a4U, 0x3d94e2973e00b283U,
  0x3d08448a3d0d5090U, 0x3c5e10e23c49e0cdU, 0x3bf240f63bf240f6U, 0xbe070189bd8aca8dU,
  0xbdf4bd8abdf244acU, 0xbda5a1e43d1e374cU, 0x3d232906bce36f7dU, 0xbe057ea83d194592U,
  0xbdf4bd8a3d8305cbU, 0x3de0f6a0be1cfaddU, 0x3ddc04e6bda81ac1U, 0x3b1e374c3d994592U,
  0xbd9bbe6fbd9bbe6fU, 0xbda81ac1be008ceeU, 0x3cbbe1aabe057ea8U, 0xbdfea0fe3d857ea8U,
  0x3daa939e3df73667U, 0xbb6d52f2bd8ce940U, 0xbca81ac1bd549a4eU, 0x3d7c2821bd598c08U,
  0xbddc04e6bd1e374cU, 0xbdbe5a87be16ccb4U, 0xbd8a70623de0f6a0U, 0x3c45c51f3dde7dc3U,
  0x3cd98c08bd0a7062U, 0x3c9453d7bd808ceeU, 0xbd7c2821bd5e7dc3U, 0xbc0a7062bdefcbcfU,
  0xbc9e374c3d1453d7U, 0xbdbbe1aa3d773667U, 0x3c31fe363e04423aU, 0x3ca81ac13dfea0feU,
  0xbe07f7853b9e374cU, 0x3d9e374c3e0a7062U, 0x3e0f621dbda5a1e4U, 0xbcc5c51fbdc5c51fU,
  0x3e1cfadd3dfc2821U, 0xbdde7dc3bced52f2U, 0xbd8ce940bdaf8558U, 0x3cf736673d057ea8U,
  0xbc6d52f23e06bb17U, 0x3d2329063dcd2fb7U, 0xbdc0d365bc598c08U, 0x3b9e374c3da5a1e4U,
  0x3dc67627bb5d89d8U, 0xbd7dd89dbdaf6276U, 0xbdbd3b14bdfb89d8U, 0x3d813b143e026276U,
  0x3cdd89d83ddd89d8U, 0x3da3d89dbd41d89dU, 0xbdc427623dd69d8aU, 0xbdbd3b143d9f3b14U,
  0x3d4fb13b3d960000U, 0x3d2627623dcd6276U, 0xbe05d89dbc700000U, 0xbd813b143db1b13bU,
  0xbe0389d93cdd89d8U, 0x3dbf89d9bb93b13bU, 0xbdd44ec5bbb89d8aU, 0x3d0f13b13dcd6276U,
  0x3c013b143d13b13bU, 0xbd2f62763e026276U, 0x3d882762bdedb13bU, 0xbcf00000bc13b13bU,
  0x3db40000bdf93b14U, 0xba93b13bbdc8c4ecU, 0xbd8f13b13c813b14U, 0x3d8f13b1bd8389d9U,
  0x3bb89d8a3ddd89d8U, 0xbdb89d8abd340000U, 0xbcb89d8a3de6c4ecU, 0xbe1289d9be026276U,
  0x3e0a76273d622762U, 0xbd93b13b3d8389d9U, 0x3bdd89d83d882762U, 0xbd916276bdc42762U,
  0xbc9cec4fbca62762U, 0x3d749d8a3d544ec5U, 0x3d4b13b1bd262762U, 0xbd3d3b143d8a7627U,
  0x3dc8c4ecbd5d89d8U, 0x3d3400003c813b14U, 0xbd13b13b3dd44ec5U, 0xbcf00000bd262762U,
  0x3daa4d9b3d2cc575U, 0x3d8caf6a3d0547deU, 0xbdf459163d5e2271U, 0xbd919f1dbdf948c9U,
  0xbd0a37903de31224U, 0xbd5e2271bc31b528U, 0x3d1906a93dbe0c67U, 0x3b9df65cbd631224U,
  0x3dbb948d3cd932beU, 0x3b1df65cbdc2fc1aU, 0xbe07bfb73d968ed0U, 0x3d4573f300000000U,
  0x3d2cc575bcf6d0f0U, 0xbda7d5c23dcf5359U, 0x3db42d01bd5e2271U, 0xbdb91cb4bd9df65cU,
  0xbdca63a6bd6cf18aU, 0xbe0194173e1cba6fU, 0xbd1906a93de589feU, 0x3d4573f3bd8547deU,
  0xbd2cc575bd4f5359U, 0x3dc2fc1abc6cf18aU, 0xbd27d5c23dea79b1U, 0x3d4084403d80582bU,
  0x3de312243db42d01U, 0xba9df65c3d31b528U, 0xbdd932be3dca63a6U, 0x3decf18abda7d5c2U,
  0x3d0547de3de09a4bU, 0x3dcf5359be02d004U, 0xbd9b7e83bb1df65cU, 0xbc5932be3c1df65cU,
  0xbdd6bae5bbecf18aU, 0x3d2cc5753d1906a9U, 0x3d8caf6a3c5932beU, 0x3df6d0f0bdc573f3U,
  0xbe0a3790bda55de8U, 0x3dbe0c67bd0547deU, 0x3dc08440bddbaa98U, 0xbe1552e3bdd4430cU,
  0xbc943c46bd2221edU, 0xba943c46bdadb6a2U, 0xbdb00793bd300793U, 0x3bde5a69bde2fc4bU,
  0xbca6c3cf3b943c46U, 0xbcf0e1f2bdd074c2U, 0xbda221edbe08a791U, 0x3b5e5a69bd62fc4bU,
  0xbdb258843dbded3aU, 0x3df0e1f23d86569fU, 0xbdd9b887bcfa25b6U, 0x3da472de3d394b58U,
  0xbd4730fe3dab65b1U, 0x3dee9101bbde5a69U, 0xbe1313cd3d98de28U, 0xbd06569f3cde5a69U,
  0x3ccbd2e0bda221edU, 0xbdc730fe3de0ab5aU, 0x3d0f9a643d88a791U, 0xbdd2c5b4ba943c46U,
  0xbdbb9c493b5e5a69U, 0x3dce23d1bdb4a975U, 0x3dadb6a23d679e2dU, 0xbdde5a693c943c46U,
  0xbdd76796bd70e1f2U, 0xbdb94b58bd394b58U, 0x3d70e1f23d5074c2U, 0x3ccbd2e03d943c46U,
  0xbda6c3cf3b943c46U, 0xbda221edbd81b4bdU, 0x3b143c46bd26c3cfU, 0xbdd516a5bce79e2dU,
  0x3b5e5a693d394b58U, 0xbd62fc4b3d1d800aU, 0xbe06569f3bde5a69U, 0x3dfc76a7bd8f9a64U,
  0x3cb94b583ca6c3cfU, 0x3dc28f1c3dd9b887U, 0xbd943c46bc70e1f2U, 0x3bb94b583d8af882U,
  0xbd50060d3d8c8e78U, 0xbd94fd6abe10c5f1U, 0xbc60e3f33d2e4a43U, 0xbd922dc4bd8f5e1eU,
  0x3d3988dbbdfa30cbU, 0x3d9a9cb7bd60e3f3U, 0xbd17cd11be0f5e1eU, 0x3cd5a55a3ca8aaf6U,
  0x3be0e3f3bd9a9cb7U, 0xbd50060dbdb988dbU, 0xbcf76125bd3f2828U, 0x3bb3e98fbdd2d5b4U,
  0xbc33e98f3e09bed1U, 0x3d7d0071bde6833fU, 0xbe3281bc3e02b7b2U, 0x3c776125bdf1c1d8U,
  0x3db988dbbda03c03U, 0xbde3b3993de0e3f3U, 0x3d60e3f3be203c03U, 0x3e06ef2bbd3988dbU,
  0x3da30baa3de3b399U, 0x3d6c228c3cec228cU, 0xbe014fdfbc06ef2bU, 0xbc4a66c13d94fd6aU,
  0xbddb44a63ab3e98fU, 0xbe0856fe3dd2d5b4U, 0x3d55a55a3c1d6c5dU, 0x3da03c0300000000U,
  0x3cb3e98fbe1934e4U, 0x3dd0060d3c776125U, 0x3de952e5bdb3e98fU, 0x3dd5a55abe02b7b2U,
  0x3df4917e3d7d0071U, 0x3db119e93e0856feU, 0x3cbf28283dbf2828U, 0xbcbf28283da5db50U,
  0xbde3b399bdc7971bU, 0xbd6c228cbc1d6c5dU, 0x3dab7a9cbdf76125U, 0x3e0c8e78bdd0060dU,
  0x3dc747543dd8800fU, 0xbdc4d182bddaf5e1U, 0xbddaf5e1bd8eb17eU, 0xbd8eb17ebd875009U,
  0x3d9fea3abdcea8c8U, 0x3d139d22bd2c3752U, 0xbc9d7468bd84da38U, 0x3d9888c53d6742f9U,
  0x3dcc32f7bdf11a3fU, 0x3c3122f53ddaf5e1U, 0xbdd60a3d3d3afa3cU, 0xbca74baebd53946cU,
  0xbd0eb17e3c09c5dbU, 0xbd912750bd22600bU, 0x3b1d74683d1888c5U, 0x3da2600b3d1d7468U,
  0x3c7fdd293d22600bU, 0xbc939d223db398c7U, 0x3cc4d182bd3fe5dfU, 0xbd22600b3daead23U,
  0xbd7af1863d58800fU, 0xbd9d7468be0c3badU, 0xbc89c5dbbcf605e2U, 0xbd139d223d939d22U,
  0x3e09c5dbbcbafa3cU, 0xbdcc32f73dd3946cU, 0x3e09c5dbbd09c5dbU, 0x3e1c397fbd7af186U,
  0xbd3afa3c3d7fdd29U, 0xbc9d7468bdb60e98U, 0x3d7af186bddaf5e1U, 0xbdb60e983e1612f3U,
  0xbb6c2e9cbdbafa3cU, 0x3daead233d0eb17eU, 0xbdbd700dbd5d6bb2U, 0xbdec2e9cbd9afe96U,
  0xbca74bae3d53946cU, 0xbd0eb17e3ccea8c8U, 0x3d9127503c6c2e9cU, 0x3c939d223d826466U,
  0x3ddd8c273dc2878cU, 0xbdd824d53c81afb3U, 0xbe1a00a53b2cea44U, 0x3d2cea44bd01afb3U,
  0x3d01afb33da21ba0U, 0xbd84635cbde03fd0U, 0x3d8717053e0055deU, 0x3cb7b8e8be1e0e22U,
  0x3db7b8e8be0c7e57U, 0x3dc2878c3d47eedfU, 0x3ce2f3793d91e5a9U, 0xbc5824d5bd1cb44eU,
  0xbd8c7e573dba6c91U, 0xbd0717053dbfd3e3U, 0xbbd824d5be2b906fU, 0x3d732970bdaa369bU,
  0x3de03fd03d732970U, 0x3dcd5631bde2f379U, 0x3d0c7e573dc2878cU, 0xbdc53b36bd2cea44U,
  0x3ccd56313db25196U, 0xbc6dc21ebddd8c27U, 0xbc2cea44bc5824d5U, 0xbc174cfc3d2cea44U,
  0x3dd5712c3de03fd0U, 0x3e133f7ebc174cfcU, 0xbdcaa288baacea44U, 0xbd732970bd0c7e57U,
  0xbd2cea44bdcaa288U, 0x3d62f379bcc2878cU, 0xbdb5053f3ccd5631U, 0xbd7329703e05bd31U,
  0xbc8c7e573d5d8c27U, 0x3daf9dedbdaa369bU, 0xbd4d5631bd62f379U, 0x3dd2bd83bdcd5631U,
  0xbd2cea44bdaa369bU, 0xbb2cea44bd37b8e8U, 0xbdaf9dedbd8f3200U, 0xbcc2878c3ddad87eU,
  0xbda9c875bc05e9d4U, 0x3dd99bf8bdc41664U, 0x3bbf4e0a3cef218cU, 0xbc2c2ca2bdffdec7U,
  0x3dd00b44bd1442e1U, 0xbd276449bd60c87fU, 0xbda5001c3c8f7a87U, 0x3b990b3b00000000U,
  0x3b6590d83dffdec7U, 0x3e0ab22d3d8f7a87U, 0x3cd26f71bdb5bd56U, 0xbdef218cbdecbd5fU,
  0x3dc1b2373e084e01U, 0x3cac2ca2bd526f71U, 0xbd85e9d43d0f7a87U, 0xbd9442e13cef218cU,
  0xbd9442e13d5c0025U, 0x3cef218c3d60c87fU, 0xbbe590d8bbe590d8U, 0x3d884e01bdfb166dU,
  0x3a990b3bbdc67a91U, 0xbd0ab22d3df8b240U, 0xbdb0f4fc3d990b3bU, 0xbd190b3b3c190b3bU,
  0x3d0ab22d3e01217aU, 0xbe17d925be025390U, 0xbdb359293db82183U, 0x3b190b3b3d60c87fU,
  0x3da29bef3c6590d8U, 0xbe071bea3d60c87fU, 0x3cf8b2403d9dd395U, 0x3dc1b237bdf64e13U,
  0x3d0ab22d3c78b240U, 0xbdf64e13be0e4871U, 0xbdf8b2403df3e9e6U, 0x3cc8debd3dde6452U,
  0x3d35bd56bd6a5932U, 0xbdd4d39e3d30f4fcU, 0xbda76449bd6a5932U, 0xbdb35929bdb82183U,
  0x3d4f71a0bbff50c6U, 0x3d1f927b3cbf7c94U, 0xbd64b85c3c3f7c94U, 0x3d1f927bbda78d02U,
  0xbe08f7553d1f927bU, 0x3d1f927b3d24e42aU, 0x3dbcd3bd3e139ab2U, 0x3dbf7c94bc9f927bU,
  0x3d3f7c94bdccc8c9U, 0xbd2a35d9bdc4ce43U, 0xbcb4d9373bff50c6U, 0x3dc4ce433d6a0a0aU,
  0xbc8a4bc03d9f927bU, 0x3cf4ad68bd34d937U, 0x3d04fa12be03a5a6U, 0x3df20491bd34d937U,
  0xbe064e7d3daa35d9U, 0xbd24e42abde4b85cU, 0xbdb4d9373aaa35d9U, 0x3bd4c34fbc3f7c94U,
  0x3e28e16d3bff50c6U, 0xbd8cf498bdb7820eU, 0x3d87a2e9bdaf8788U, 0xbd7f50c6bcd4c34fU,
  0x3ddf66ad3daf8788U, 0x3c8a4bc0bd9797f5U, 0xbd8cf498bd3a2ae5U, 0x3dc2256cbdd4c34fU,
  0xbdb4d9373d8a4bc0U, 0xbd5a14fe3caa35d9U, 0x3c3f7c943dba2ae5U, 0x3d24e42abd8a4bc0U,
  0x3db4d937bdecb2e2U, 0xbdaa35d9bd94ef1eU, 0xbdba2ae5bd04fa12U, 0xbaaa35d9bdd4c34fU,
  0x3d2f87883c14ef1eU, 0xbbff50c63d54c34fU, 0xbaaa35d93dd21a78U, 0xbd64b85cbd8cf498U,
  0xbc2cdd703daa29faU, 0x3de59619bd91dad6U, 0x3d277684bda4c30fU, 0x3d5d7bb83cb7ab47U,
  0x3d81a614bd2cdd70U, 0xbe070d00bd277684U, 0x3d9ca8ae3d8c73ebU, 0xbd787e51bd89c075U,
  0xbc6db07a3ce2e2a3U, 0xbde8498ebc5814ccU, 0xbdbd12323de59619U, 0x3d7317663db4f7d1U,
  0xbd3d1232bd84598aU, 0xbaacdd70bd731766U, 0xbde8498ebd9f5c23U, 0xbc81a6143db7ab47U,
  0x3d42791ebddac842U, 0x3dfde53c3cedb07aU, 0x3e15e8073cb7ab47U, 0x3ce2e2a3bcb7ab47U,
  0x3df317663de2e2a3U, 0xbde59619bd89c075U, 0xbddd7bb83da77684U, 0xbd9741c23df87e51U,
  0xbd81a614bd62e2a3U, 0xbd89c0753ddac842U, 0xbdb2445c3db2445cU, 0x3e02ffcfbdb7ab47U,
  0x3e05b345bd9f5c23U, 0x3ddd7bb83e236954U, 0x3d948e4c3c42791eU, 0x3ca20f993df063f0U,
  0x3e2b83b5bd5814ccU, 0x3e133491bde2e2a3U, 0x3ccd46f53dd2ade0U, 0x3e02ffcf3e0b1a30U,
  0xbc8c73eb3e01a614U, 0x3e0c73ebbdbfc5a8U, 0x3d5d7bb83d89c075U, 0xbd91dad6bc9741c2U,
  0x3e1839b1bd3991e9U, 0xbdb6aba1bd9c931dU, 0x3d827a983d452b08U, 0xbd96c68dbe381ec5U,
  0xbd33c55abdab1283U, 0x3e0847273cd0c426U, 0x3deadcabbc96c68dU, 0x3da545f43d0560dfU,
  0x3c7f28a03d8560dfU, 0x3dd3aa6ebdc244c0U, 0xbdd976fdU, 0xbc3991e9bd3991e9U,
  0xbcadf8cabc3991e9U, 0x3e0b2d6f3d827a98U, 0xbde7f6633dbf5e78U, 0x3dd0c4263ca25facU,
  0x3dc244c03be7f663U, 0xbd5690b5bdfc4259U, 0x3c8b2d6f3d99acd5U, 0x3cadf8cabca25facU,
  0x3c225facbc225facU, 0xbd5c5d45bdcddddeU, 0x3d9c931dbd9f7964U, 0xbd90f9fe3cb991e9U,
  0xbcd0c4263df0a93aU, 0xbbe7f6633dbc7831U, 0x3de229d43ab991e9U, 0x3cf38f82bc96c68dU,
  0x3d67f663be03edbcU, 0x3d5690b5bd3f5e78U, 0x3dcaf797bdbf5e78U, 0x3d6dc2f33c7f28a0U,
  0xbe06d403bda545f4U, 0xbdeadcabbd5690b5U, 0xbd99acd53d16c68dU, 0xbdc244c03dcddddeU,
  0xbde7f6633d827a98U, 0xbdf95c11bdbc7831U, 0x3d5690b53c225facU, 0xbcf38f82bd2df8caU,
  0xbc88eb393dab2607U, 0xbd8e2f583d233fd7U, 0xbe064929bbd2a4f5U, 0x3d137378bde51364U,
  0x3d2883f7bd810509U, 0xbdcabec53c137378U, 0x3d6271543d233fd7U, 0xbd481cb5bda09dc7U,
  0xbbfcc5f2bdab2607U, 0xbd8105093cdd2d34U, 0xbcd2a4f5bb7cc5f2U, 0xbc9dfbb83cf23db3U,
  0xbe14c4803e25e1e7U, 0x3bd2a4f53e2732efU, 0x3cbd94763d8b8d49U, 0x3ba883f7bdd7e914U,
  0x3bfcc5f23e233fd7U, 0xbc67b5743db85056U, 0xbdc2d8963d8e2f58U, 0x3da09dc7bd42d896U,
  0x3d3d9476bdecf993U, 0xbd9dfbb8bdc2d896U, 0xbdef9ba3bc88eb39U, 0x3dc03686bda5e1e7U,
  0xbdc03686bd385056U, 0x3dbd94763db5ae46U, 0x3c2883f7bbd2a4f5U, 0x3e0f80603db85056U,
  0x3da09dc7bd52a4f5U, 0xbd9615883dd2a4f5U, 0x3d330c36bc67b574U, 0x3ddd2d34bcb30c36U,
  0x3d18b798bd7781d3U, 0x3c9dfbb8bdbd9476U, 0xbd723db3bcb30c36U, 0xbde271543de7b574U,
  0x3db5ae463b2883f7U, 0x3d42d8963cfcc5f2U, 0x3ddd2d343bd2a4f5U, 0xbd8b8d493d864929U,
  0x3da0efd4bd1e61ddU, 0x3e02483ebd09f223U, 0xbdc4b3583db55f8dU, 0xbdff748d3d237dcbU,
  0x3d56951abdba7b7cU, 0x3dbd09733cf53cb0U, 0xbc753cb0bc237dcbU, 0xbd942a003d7020c2U,
  0x3ceb04d4bd32d196U, 0xbd9945ee3dadb5a8U, 0xbd60ccf73d9945eeU, 0x3c37ed843b237dcbU,
  0xbd87642cU, 0xbdc225613cb7ed84U, 0x3cc2256100000000U, 0x3b753cb0bdfce696U,
  0x3dd6951abd3d0973U, 0x3ded92cb3e038f39U, 0x3ddbb1093dff748dU, 0x3aa37dcb3c9945eeU,
  0x3d753cb0bdcc5d3eU, 0x3de0ccf73cc22561U, 0x3d7a589f3db55f8dU, 0x3dba7b7c3d1945eeU,
  0x3d7a589f3d51792cU, 0x3d51792cbc84d635U, 0x3e1d1ae13dfa589fU, 0x3c753cb0bd142a00U,
  0xbc237dcb3d09f223U, 0x3e2236cf3e142a00U, 0x3dd923123b237dcbU, 0x3d89f223bd5bb109U,
  0xbda60bc23e142a00U, 0xbde5e8e53d5bb109U, 0x3dba7b7c3d09f223U, 0xbd0f0e12bd8f0e12U,
  0x3d6b04d4bd7a589fU, 0x3dbd09733d9945eeU, 0xbd09f223bda37dcbU, 0xbdd40723bc37ed84U,
  0x3dfe93f8bcaedc96U, 0xbd3925ccbd05b7beU, 0x3c9a4a2a00000000U, 0x3d9a4a2a3aa49360U,
  0x3d95258fbc85b7beU, 0xbde4dcf23dc36f02U, 0x3c9a4a2a3c624aa4U, 0x3d05b7bebd1a4a2aU,
  0x3c9000f4bda49360U, 0x3c624aa4bc85b7beU, 0xbcd8016ebd6c93daU, 0x3d929342bd48939dU,
  0xbe1000f43d9a4a2aU, 0x3d8adc593d249360U, 0x3d1000f43d8adc59U, 0x3dda93bcbdfc01abU,
  0x3d85b7be3df44ac2U, 0x3cb925cc3d884a0cU, 0xbd9a4a2a3b76dd10U, 0xbb2493603da9b7fbU,
  0x3e01dc4a3ce24aa4U, 0xbbf6dd10bd8adc59U, 0xbbf6dd10bccdb838U, 0x3d3925cc3d3e4a67U,
  0x3ca493603da49360U, 0x3de24aa43ce24aa4U, 0xbdd56f20bd58016eU, 0xbe1b93513d624aa4U,
  0xbcaedc96bd9cdc78U, 0x3c85b7be3d29b7fbU, 0xbd884a0cbdd8016eU, 0x3c3925cc3bcdb838U,
  0xbe0c2580be0adc59U, 0x3dbbb81abd340131U, 0x3dd56f20bba49360U, 0xbcb925ccbd1f6ec5U,
  0x3dc601503d249360U, 0xbddd26093d4db838U, 0xbd15258fbca49360U, 0x3e234a393ddd2609U,
  0x3d96cc6ebc697e9aU, 0xbd8d11d23d8f8079U, 0xbde232a5bdff6278U, 0xbd477179bdf5a7ddU,
  0xbdd12c153d1ba9bcU, 0x3d1ba9bcbd781684U, 0xbd8f8079be083484U, 0xbda7d2ff3d7cf3d2U,
  0xbd8f8079bd8f8079U, 0xbd5ae6b0bcfcf3d2U, 0x3c7cf3d2bd33fc41U, 0xbb697e9a3da7d2ffU,
  0x3cc2942bbd477179U, 0x3c560962bd2f1ef4U, 0x3df0ca8f3dd39abcU, 0x3d33fc413d5ae6b0U,
  0xbdebed41bd560962U, 0x3d8d11d23dc9e020U, 0xbd16cc6ebd33fc41U, 0xbb9ba9bc3c883484U,
  0x3d7816843d477179U, 0x3dc9e0203b697e9aU, 0x3cfcf3d2bd33fc41U, 0xbdb8d98f3dc02584U,
  0xbdaa41a63d3db6ddU, 0xbdfa852bbcc2942bU, 0x3b1ba9bc3c1ba9bcU, 0xbdf81684bd96cc6eU,
  0xbdcc4ec7be1a7269U, 0x3d20870a3ddae6b0U, 0x3dc9e0203dc02584U, 0x3c9ba9bcbdc77179U,
  0x3b697e9abd8aa32bU, 0xbd3db6dd3d945dc7U, 0xbb697e9a3de232a5U, 0xbd64a14cbde70ff3U,
  0x3c42942b3d883484U, 0xbd0357373d993b15U, 0x3d20870a3e035737U, 0x3cb8d98fbc560962U,
  0xbc941b533d7aa466U, 0xbd5e28fdbe0e690bU, 0x3dd2c46d3db92228U, 0xbc88b6c33e19cd9bU,
  0x3dadbd98bd91422fU, 0x3d03047bbe002b57U, 0xbd74f21dbda25908U, 0xbc88b6c3bcaae474U,
  0x3d03047bbc941b53U, 0x3d9f7fe43be3db45U, 0xbc63db453db36fe0U, 0x3e05dd9f3d96f477U,
  0x3caae4743c88b6c3U, 0x3dd59d913c941b53U, 0x3caae4743d41ad94U, 0xbdb36fe03d19cd9bU,
  0xbdc1ad943dbed470U, 0xbd1f7fe4bb364904U, 0xbd475fdc3daae474U, 0x3da5322c3dc1ad94U,
  0x3df7cb41be34dc72U, 0x3d52c46d3dc486b8U, 0x3e23c59a3df7cb41U, 0xbd85dd9f3c9f7fe4U,
  0xbd41ad94bdb36fe0U, 0x3dde28fd3d6f3fd5U, 0xbda80b503ab64904U, 0xbd1f7fe4bdf7cb41U,
  0xbda25908bdb64904U, 0x3e03047bbdbbfb4cU, 0xbdc486b83d08b6c3U, 0x3d88b6c3bd19cd9bU,
  0xbd2ae4743d63db45U, 0x3db36fe03dc75fdcU, 0x3db36fe03d19cd9bU, 0x3d08b6c3bd85dd9fU,
  0x3d364904bdcfeb49U, 0x3de98d8dbd5876b5U, 0xbde10221bd5876b5U, 0xbb88b6c33d364904U,
  0xbd383054bd56e30cU, 0xbd663c693d3d4e1dU, 0xbd850675bcc26be7U, 0xbdadf4c13c997d9bU,
  0x3cb830543cb83054U, 0x3ccca77abb23b92eU, 0xbd6b5a32bc997d9bU, 0xbd8cb3243dbabf38U,
  0xbd9c0c803d33128aU, 0x3cc26be73ca3b92eU, 0x3b7595c5bb23b92eU, 0xbdb5a16f3dcf365eU,
  0xbd8cb3243d33128aU, 0x3de3ad843d96eeb6U, 0x3d611e9f3dffd158U, 0x3dc4facb3e2271bcU,
  0x3c4ca77a3de8cb4dU, 0x3d0f42083d33128aU, 0xbdcca77abba3b92eU, 0x3d51c543bdd1c543U,
  0xbdbabf383dd1c543U, 0x3ceb5a323d197d9bU, 0x3db083a6bd4ca77aU, 0xbd7ab38e3d5c00d6U,
  0xbd611e9f3cc26be7U, 0x3d7fd1583d9e9b65U, 0xbdadf4c1bc850675U, 0x3b23b92ebe183629U,
  0xbda648133d91d0edU, 0x3c997d9b3d4789b0U, 0xbd611e9f3db5a16fU, 0x3d8f4208bd8f4208U,
  0x3d997d9b3ce11e9fU, 0xbdfd42733dab65dcU, 0xbd96eeb63dd1c543U, 0x3ca3b92e3c7595c5U,
  0x3c383054bdadf4c1U, 0x3d9c0c803cf595c5U, 0xbda648133d945fd2U, 0x3db830543da12a49U,
  0x3dd7d9283c86e7b9U, 0x3e0ec64f3dbf1d9cU, 0xbcd7d928bd98e47dU, 0xbe06e7b9be0c86b6U,
  0x3c21e2debe0028f0U, 0x3d9b2415bd21e2deU, 0xbdbf1d9c3c7bd2afU, 0xbde79653bdaae140U,
  0x3cb3dfa23d0fe61bU, 0x3d77537ebd96a4e4U, 0xbdca5b96bcb3dfa2U, 0x3cf2d44e3d892752U,
  0xbce0d78abce9d5ecU, 0x3e0268883de9d5ecU, 0x3a8fe61bbdb1a009U, 0x3cb3dfa2bcfbd2afU,
  0x3d69d5ec3cd7d928U, 0xbcf2d44e3d6e551dU, 0xbda6620fbca1e2deU, 0xbd18e47dbd7bd2afU,
  0xbd9b24153db3dfa2U, 0xbd415d34bd86e7b9U, 0x3d94654cbd7bd2afU, 0x3dc15d343ce9d5ecU,
  0x3df094b53cc5dc65U, 0xbdad20d8bdb61f3aU, 0xbd77537e3dc5dc65U, 0xbcc5dc653ccedac7U,
  0x3dcc9b2e3df99317U, 0x3d96a4e4bddc5859U, 0xbd826888bcc5dc65U, 0xbc8fe61bba8fe61bU,
  0x3d4a5b963ca1e2deU, 0xbd86e7b9be0a471eU, 0xbd9fa346bdaf6071U, 0xbd14654c3dc15d34U,
  0xbbd7d928bbb3dfa2U, 0x3caae140bd14654cU, 0x3d8268883e0b66eaU, 0xbdb3dfa2bdd359f8U,
  0x3ddb8665bdaf9eb7U, 0x3dd8f13d3ced9a80U, 0xbcb9f359bced9a80U, 0x3dcc0773bc90a0d3U,
  0xbc4e9c9c3caf9eb7U, 0x3bf7ef213df559f9U, 0x3b77ef213dc6dd22U, 0xbb254a163de8702fU,
  0xbd90a0d33d201fc5U, 0xbb254a163dcc0773U, 0x3cd8f13dbe05019eU, 0xbd39f359bd34c908U,
  0xbd0121e13d83b70aU, 0xbd0b7683be026c75U, 0x3d53c6ecbcaf9eb7U, 0xbdc1b2d2bd58f13dU,
  0xbd49724b3b254a16U, 0x3d064c32bd34c908U, 0xbdad098f3d254a16U, 0x3ded9a803c9af575U,
  0x3ddb86653d88e15aU, 0xbd95cb243da7df3eU, 0x3d72c4d0bdf7ef21U, 0x3daa74673dce9c9cU,
  0x3e03b70a3d4447faU, 0x3d3f1da9bdd65c15U, 0x3e05019e3e23ff82U, 0x3e05019ebdb233e0U,
  0xbd15cb24bd68702fU, 0xbe10a0d3bdb9f359U, 0x3dfa8449bd34c908U, 0x3dc447fa3d53c6ecU,
  0xbdb4c9083db4c908U, 0x3dc447fabd9d8a9dU, 0x3da7df3ebdeb0557U, 0x3d9d8a9dbd83b70aU,
  0x3ddb86653de5db07U, 0xbdffae9a3da54a16U, 0xbe026c753d8e0babU, 0xbd2a74673df7ef21U,
  0xbd9a67bebdbb4fb0U, 0xbcac1fb73d8dbfc4U, 0xbdf58797bdedef9bU, 0xbcac1fb7bda70fb9U,
  0x3c72ff983d8b37c5U, 0xbdf0779a3c97dfbfU, 0xbe04e3c7bda1ffbbU, 0xbd1cefbdbd0dbfc4U,
  0x3ba1ffbb00000000U, 0x3ddebfa1bde6579eU, 0x3d12cfc1be0627c7U, 0xbda487ba3d3b4fb0U,
  0x3c8dbfc43db12fb5U, 0x3d3b4fb0be0f03c3U, 0x3d0dbfc43c5ebfa1U, 0x3cdebfa13c97dfbfU,
  0x3dedef9bbd8117c9U, 0x3dac1fb7bd8dbfc4U, 0x3dc56facbd039fc8U, 0xbe1047c33c72ff98U,
  0xbdb12fb5bdedef9bU, 0x3c4a7faa3ddebfa1U, 0xbddc37a23d6def9bU, 0xbe169bc0be20bbbcU,
  0xbd17dfbf3d4a7faaU, 0x3da1ffbbbe0627c7U, 0xbd6def9bbcd49fa5U, 0x3ce8df9dbddebfa1U,
  0xbce8df9dbd8117c9U, 0x3c97dfbfbd363fb2U, 0x3db63fb23d88afc6U, 0x3d549fa5bcfd1f94U,
  0x3da1ffbb3d312fb5U, 0xbd72ff983dfd1f94U, 0x3cd49fa53c839fc8U, 0x3d72ff983de3cf9fU,
  0x3c97dfbfbb21ffbbU, 0x3e1413c13d88afc6U, 0x3de147a0bda997b8U, 0xbdcf8fa800000000U,
  0xbe173a96bc2b78dbU, 0xbd5b1a6dbb64a124U, 0xbd986b6d3d303c36U, 0xbddd7c1abd5b1a6dU,
  0x3c3e8648be0c8308U, 0xbbbe86483df54ce3U, 0x3db29de43d9acd1bU, 0xbdebc62dbb186b6dU,
  0xbc8ee4b63c186b6dU, 0xbe02fc52bc186b6dU, 0xba986b6d3d9d2ec8U, 0xbe0db3df3db4ff91U,
  0x3da453d23dfed39aU, 0xbd009aa43c186b6dU, 0x3cbe86483ddfddc8U, 0xbdb9c2edbdb03c36U,
  0xbd9acd1bbcf7ae91U, 0xbdf089883d914664U, 0xbdf54ce3bdadda88U, 0xbc8ee4b6bbe4a124U,
  0x3d480cff3dfc71edU, 0x3e114664bdb29de4U, 0xbdccd05a3dfa103fU, 0xbd4cd05abd77ae91U,
  0xbca1f224bdb4ff91U, 0x3d0ee4b63ddb1a6dU, 0x3c055dff3b986b6dU, 0x3d26b57fbb64a124U,
  0xbb186b6d3ca1f224U, 0xbce4a1243d2b78dbU, 0xbcee27da3d303c36U, 0x3d72eb36bcd193b6U,
  0xbca1f224bda9172dU, 0x3debc62d3d9609bfU, 0xbd186b6dbdc0e7f6U, 0xbd5b1a6d3dccd05aU,
  0x3d82fc52bd9f9076U, 0xbddfddc8bd055dffU, 0x3c2b78db3dc5ab51U, 0xbd2b78dbbdb03c36U,
  0xbd4365123d151dfaU, 0xbde23f23bcf6d083U, 0x3e0467dcbdfbf4dbU, 0xbb76d083bba48b02U,
  0x3de7637b3db91c62U, 0x3dbe40babdef19ffU, 0x3d0ad54a3cec87d3U, 0x3da9af5abd97b026U,
  0x3d85b0f23de7637bU, 0x3bf6d083bd951dfaU, 0x3db165debb76d083U, 0x3d9a4252bc85b0f2U,
  0xbdcdadc23e2341ecU, 0x3de4d14f3c8ff9a2U, 0xbd67637b3d6c87d3U, 0x3d951dfa3c623f23U,
  0xbdbbae8e3db3f80aU, 0x3c85b0f23d76d083U, 0x3da48b02bd0ad54aU, 0xbd0ad54abdf962afU,
  0xbd9f66aa3e01d5b0U, 0x3d9a42523d9a4252U, 0x3e18f93c3e0467dcU, 0xbdef19ffbdda889fU,
  0x3db91c623d1f66aaU, 0xbd4dadc23df962afU, 0x3caed3b23e08431eU, 0xbc9a4252bda9af5aU,
  0xbd8ad54abda48b02U, 0xbc623f23bd71ac2bU, 0xbdc0d2e63cd7f673U, 0x3e1142b8bd3e40baU,
  0xbbcdadc2bce23f23U, 0xbdf6d083bdbe40baU, 0xbbcdadc23d0ff9a2U, 0x3dcb1b96bdf6d083U,
  0x3aa48b02bd57f673U, 0xbdc8896a3ca48b02U, 0x3c391c62bd1a4252U, 0x3db91c623d76d083U,
  0xbdb19a0d3ceccd67U, 0x3e3302e53d346bbcU, 0x3d563fefbd9dde44U, 0x3df270c53d929789U,
  0x3c9297893c929789U, 0x3d2381a23d0cf42bU, 0xbd81ad6f3d509c91U, 0xbcbfb2783d9dde44U,
  0x3dd9119ebdf54274U, 0x3ddeb4fcbdf54274U, 0xbd3fb278bc1dde44U, 0xbdba0f1a00000000U,
  0x3d6186abbd929789U, 0x3d2381a2bd3a0f1aU, 0x3d4555d63d6ccd67U, 0xbd3fb278bc929789U,
  0x3cb46bbcbd6186abU, 0x3da653513d5be34dU, 0x3dcaf9343d8a227cU, 0xbe1297893ccaf934U,
  0x3d4af9343d129789U, 0xbd956938bdb46bbcU, 0xbd9b0c96be0a227cU, 0xbdb46bbc3d183ae7U,
  0x3d2381a2be156938U, 0x3d3a0f1abd847f1eU, 0xbdc555d6bdc555d6U, 0x3d2381a2bd6ccd67U,
  0x3deccd673d6186abU, 0x3dd9119e3def9f16U, 0xbd983ae73c8750cdU, 0x3ddbe34d3e0750cdU,
  0xbdd63fef3e047f1eU, 0x3da65351bbb46bbcU, 0xbd183ae7bdba0f1aU, 0x3c9dde44be0fc5daU,
  0x3dfae5d13de72a09U, 0x3de186abbde9fbb8U, 0xbdbce0c9bdcaf934U, 0x3d3fb278bd346bbcU,
  0x3c74efb73d4f40feU, 0xbd089961bddb0798U, 0xbe0511003d6b8409U, 0x3d3c69a13d32fdf2U,
  0x3c4f40febd5d6283U, 0xbe005b29bcfe5b66U, 0xbd089961be051100U, 0x3e089961bb16bae7U,
  0xbdd8acacbccf40feU, 0xbdae481b3e158d71U, 0xbccf40fe3dabed2fU, 0xbd120510bcc5d54fU,
  0xbd66ce323ceb8409U, 0xbda026953df294ccU, 0x3d79a58f3d58acacU, 0xbd66ce323db558deU,
  0xbdba0eb53df039e0U, 0x3c3c69a13ddfbd6fU, 0xbe0af44dbb16bae7U, 0xbd81889f3b96bae7U,
  0x3d16bae7bda99244U, 0x3ccf40fe3c74efb7U, 0x3d2992443d8af44dU, 0x3cb2fdf2bd945ffbU,
  0x3be2185a3e10d79aU, 0xbde9291d3ddb0798U, 0x3ce2185a3d5d6283U, 0xbdc11f783c8d4f39U,
  0x3dae481b3d24dc6dU, 0xbdd19be9bdeb8409U, 0x3ddb0798bbbc69a1U, 0xbe02b614be03e38aU,
  0x3dabed2fbd81889fU, 0xbde47346bdabed2fU, 0xbda026953d089961U, 0xbdbc69a1bd58acacU,
  0x3a96bae73d66ce32U, 0x3c4f40fe3d089961U, 0x3c74efb73dc5d54fU, 0x3d83e38abd7e5b66U,
  0x3b9d344b3d898dc2U, 0x3d3f97bbbcd827e7U, 0xbe0369b7bd221dedU, 0x3df32ce43dfa8b58U,
  0xbda70790bda97c61U, 0x3d75a1b53d0e7764U, 0x3d6bce70bd6bce70U, 0x3d2bf132be0c0293U,
  0xbd75a1b5bd9fa91cU, 0xbd30dad43d7f74faU, 0x3cc4815ebdd5b316U, 0x3db5c477bcbaae19U,
  0x3cff74fa3ca70790U, 0x3da97c613dae6603U, 0x3d70b8133cf5a1b5U, 0xbd70b813bc30dad4U,
  0x3da70790bb6bce70U, 0x3e1bf9e23c098dc2U, 0xbd984aa93d9fa91cU, 0x3dd33e45bd75a1b5U,
  0x3c9d344bbe0e7764U, 0x3dbd22eabc7f74faU, 0x3d984aa93df32ce4U, 0xbd30dad43c7f74faU,
  0xbd533e453dce54a2U, 0xbd496b003d35c477U, 0xbc936106bc1d344bU, 0xbc9d344b3da70790U,
  0x3c9361063d8718f0U, 0x3d221ded3d098dc2U, 0x3d30dad43d184aa9U, 0x3dbaae19be0718f0U,
  0x3c9d344b3dbaae19U, 0x3d9fa91cbe171040U, 0x3c7f74fabd1d344bU, 0xbce1fb2cbde6e4ceU,
  0x3d84a41f3ce1fb2cU, 0xbde6e4ce3dd827e7U, 0xbdfa8b58bd136106U, 0xbc1d344bbbc4815eU,
  0x3d66d07c3c1d2675U, 0xbd90df743df800b1U, 0x3a9d26753a9d2675U, 0x3df58c173c0981a6U,
  0xbd2be210bc447012U, 0xbddcfe153b9d2675U, 0x3cb0cb443c1d2675U, 0xbcba9dabbdee2e49U,
  0x3d183d413de1e748U, 0x3b6bb9b0bdb33fddU, 0x3d4959463d7f5e7eU, 0xbe0abbf3bc5814e1U,
  0x3d495946bb6bb9b0U, 0xbdba9dab3e00e98cU, 0x3e0981a6bda20fa9U, 0xbcb0cb443d983d41U,
  0x3d0981a63d983d41U, 0xbd6bb9b03db82911U, 0xbd26f8dcbe1bec28U, 0xbd9d26753d8981a6U,
  0xbdae56aa3d93540eU, 0x3d758c173e0223d9U, 0x3a9d26753dda897bU, 0x3d758c173d983d41U,
  0x3dc470123d0981a6U, 0xbcb0cb443d95c8a8U, 0x3dbd12453ddcfe15U, 0x3e1219c1bdee2e49U,
  0xbcd814e13cff5e7eU, 0xbd0498733cc47012U, 0x3cebb9b03c7f5e7eU, 0x3d90df743d95c8a8U,
  0xbd35b477bdfce9e4U, 0x3d2be210bdff5e7eU, 0xbdf3177d3cb0cb44U, 0x3d13540ebd3a9dabU,
  0x3d61e748bd0981a6U, 0x3d4e427a3d183d41U, 0x3cff5e7e3d0e6adaU, 0x3d1d26753c447012U,
